, 259973
the 236396
. 184088
of 125791
to 124252
and 114157
in 84358
a 82575
that 57193
is 57014
’ 53164
s 49428
for 36683
– 32199
be 28253
as 26802
The 26682
on 26468
are 25869
it 25356
with 23847
not 22762
by 22270
has 21596
have 20931
will 18327
its 17525
an 17522
from 17007
their 16119
more 15868
“ 15602
” 15353
or 14150
But 13499
was 13480
at 13256
would 13043
this 12679
they 12019
which 11709
countries 11492
than 11454
US 11027
In 10868
China 10383
can 10146
) 10133
( 10124
but 10124
world 9647
% 9016
been 8933
all 8739
economic 8698
one 8095
; 7739
government 7623
new 7466
only 7457
should 7325
growth 7252
other 7123
also 7082
: 7077
Europe 6979
global 6949
re@@ 6915
we 6907
-@@ 6787
about 6776
political 6677
un@@ 6633
could 6617
his 6530
no 6515
such 6413
most 6382
who 6313
people 6142
European 6076
were 6054
country 6046
now 5996
if 5963
even 5950
years 5893
in@@ 5834
financial 5825
many 5683
This 5640
t 5524
ing 5492
when 5407
must 5350
there 5348
economy 5313
some 5294
so 5276
time 5259
do 5223
these 5190
It 5151
out 5100
into 5098
? 5082
policy 5020
what 4883
had 4864
may 4855
much 4802
them 4711
over 4664
he 4544
ation 4502
And 4496
EU 4494
up 4475
power 4464
A 4449
crisis 4446
like 4414
es 4359
ate 4335
United 4183
I 4164
international 4139
because 4133
year 4123
ed 4087
between 3991
s@@ 3928
public 3917
As 3889
those 3845
two 3790
America 3767
less 3758
S@@ 3749
d@@ 3744
b@@ 3710
need 3689
while 3662
er 3639
our 3608
well 3593
way 3551
debt 3541
market 3507
ated 3488
t@@ 3479
any 3466
M@@ 3380
system 3378
just 3363
first 3348
able 3305
how 3294
both 3290
B@@ 3286
ating 3285
against 3266
leaders 3251
change 3238
$ 3235
p@@ 3233
Russia 3228
de@@ 3219
banks 3217
For 3203
C@@ 3195
al 3173
after 3165
investment 3160
en@@ 3111
markets 3083
ted 3080
e@@ 3078
become 3052
If 3047
last 3038
e 3029
make 3014
example 3008
governments 2994
own 2974
state 2974
support 2966
Japan 2958
ting 2958
too 2958
A@@ 2918
important 2914
f@@ 2881
where 2853
Indeed 2841
rates 2831
y 2829
R@@ 2822
dis@@ 2818
far 2811
interest 2810
P@@ 2807
k@@ 2803
T@@ 2793
recent 2789
national 2769
India 2738
development 2731
ts 2731
long 2726
L@@ 2725
States 2696
c@@ 2685
end 2678
trade 2678
policies 2674
military 2672
ers 2670
g@@ 2658
D@@ 2653
future 2645
o@@ 2643
Iran 2639
including 2622
today 2617
m@@ 2610
still 2596
H@@ 2594
does 2594
President 2591
rate 2585
Chinese 2578
economies 2564
through 2556
American 2548
GDP 2536
E@@ 2535
being 2532
same 2527
social 2520
That 2519
Germany 2513
war 2513
since 2508
a@@ 2507
G@@ 2480
energy 2470
us 2457
ar@@ 2445
capital 2439
prices 2433
fiscal 2427
i 2415
F@@ 2412
security 2404
an@@ 2402
tion 2394
billion 2391
might 2386
y@@ 2379
take 2378
nuclear 2377
o 2374
likely 2361
right 2361
real 2359
work 2349
use 2337
large 2335
made 2329
Israel 2328
high 2313
major 2301
i@@ 2297
current 2279
better 2264
without 2263
problem 2251
risk 2249
di@@ 2239
result 2229
good 2218
states 2201
did 2195
cannot 2191
led 2166
part 2166
li@@ 2165
k 2163
foreign 2141
under 2140
ous 2138
fact 2133
u@@ 2126
already 2124
ly 2119
Bank 2115
very 2113
st@@ 2108
demand 2106
K@@ 2099
help 2096
at@@ 2095
another 2092
They 2086
course 2072
There 2069
ti@@ 2058
East 2056
central 2054
h@@ 2050
often 2050
institutions 2046
oil 2045
eurozone 2038
region 2036
We 2034
N@@ 2017
order 2013
l@@ 2009
So 2007
among 2006
tax 2002
down 1995
n@@ 1995
ri@@ 1992
then 1992
as@@ 1990
it@@ 1989
am@@ 1985
le@@ 1983
sh@@ 1976
ally 1971
Obama 1969
al@@ 1945
on@@ 1941
Asia 1933
ations 1929
Moreover 1922
ding 1915
million 1914
er@@ 1911
before 1910
rather 1900
past 1895
v@@ 1893
To 1890
Union 1887
health 1873
increase 1869
around 1868
World 1863
&apos;s 1861
role 1861
South 1854
three 1851
money 1846
n 1843
least 1833
or@@ 1819
private 1819
problems 1818
I@@ 1815
monetary 1812
whether 1806
income 1803
back 1798
lo@@ 1797
climate 1787
human 1773
little 1769
companies 1764
needed 1757
ent 1756
developing 1753
especially 1752
few 1744
r@@ 1739
red 1733
ad@@ 1730
approach 1718
rise 1718
needs 1717
price 1716
w@@ 1716
spending 1712
case 1709
set 1707
process 1699
co@@ 1686
con@@ 1682
ab@@ 1679
next 1678
education 1671
Iraq 1670
over@@ 1670
point 1668
pro@@ 1663
higher 1661
France 1657
sector 1657
toward 1649
l 1647
pre@@ 1647
reform 1646
clear 1639
th@@ 1635
remains 1630
democracy 1629
inflation 1623
At 1620
reforms 1620
ch@@ 1612
means 1608
Africa 1607
come 1599
growing 1598
domestic 1595
W@@ 1589
different 1589
With 1587
strong 1586
king 1582
why 1582
ds 1577
ago 1576
When 1575
&amp; 1572
Greece 1570
however 1570
given 1569
p 1565
d 1560
further 1559
continue 1558
West 1556
decades 1555
costs 1554
action 1550
O@@ 1543
during 1540
others 1540
he@@ 1535
based 1534
efforts 1534
you 1529
remain 1528
almost 1525
citizens 1524
used 1519
m 1516
long-term 1514
population 1507
ir@@ 1503
members 1502
difficult 1499
key 1498
election 1496
increasingly 1494
within 1494
em@@ 1493
1 1492
ant 1490
le 1488
low 1487
currency 1482
Middle 1479
age 1479
off 1476
peace 1476
poor 1471
provide 1471
One 1469
se@@ 1469
put 1467
ans 1465
potential 1465
ates 1464
Korea 1460
bank 1456
yet 1451
business 1450
el@@ 1447
enough 1447
im@@ 1447
itself 1447
regional 1447
ac@@ 1446
2 1444
law 1442
agreement 1440
level 1440
ro@@ 1434
ded 1431
rights 1430
seems 1428
control 1425
services 1425
best 1423
resources 1422
particularly 1419
question 1418
ra@@ 1418
benefits 1414
greater 1414
place 1414
es@@ 1408
emerging 1407
st 1407
ents 1406
regime 1403
though 1402
longer 1401
her 1387
tions 1386
share 1382
recently 1381
century 1376
Arab 1371
per 1371
terms 1368
These 1366
force 1365
labor 1365
While 1359
number 1355
ter 1352
be@@ 1349
each 1349
z@@ 1349
interests 1348
By 1343
women 1341
politics 1340
view 1335
life 1334
rising 1333
children 1330
After 1329
j@@ 1328
cost 1325
3@@ 1324
thus 1323
vi@@ 1323
de 1322
ity 1322
Yet 1321
si@@ 1319
als 1317
forces 1316
War 1315
inter@@ 1314
never 1313
former 1311
reduce 1311
What 1310
possible 1309
go 1306
stability 1304
every 1303
ic@@ 1302
risks 1300
day 1296
act 1292
effective 1292
non-@@ 1292
North 1291
impact 1291
say 1291
out@@ 1290
su@@ 1288
history 1287
workers 1286
bo@@ 1283
face 1283
pe@@ 1280
member 1278
ar 1277
common 1276
g 1276
small 1276
progress 1275
en 1272
d-@@ 1271
strategy 1268
J@@ 1267
local 1264
reason 1264
sp@@ 1264
Western 1263
ever 1262
free 1261
democratic 1260
Syria 1255
finance 1255
see 1253
value 1253
se 1252
left 1248
sts 1248
challenges 1247
ap@@ 1245
ag@@ 1242
euro 1239
create 1238
conflict 1237
Re@@ 1235
lead 1233
ur@@ 1232
8 1222
under@@ 1222
get 1221
7 1215
infrastructure 1214
access 1212
making 1212
sense 1211
society 1211
investors 1208
Even 1206
2008 1205
serious 1205
ha@@ 1204
ul@@ 1201
New 1199
credit 1199
V@@ 1194
ol@@ 1194
ve 1194
Minister 1192
themselves 1192
On 1187
per@@ 1187
levels 1185
again 1180
ence 1180
significant 1180
ment 1179
great 1178
issues 1175
want 1174
early 1173
lower 1173
know 1171
measures 1169
together 1168
second 1167
unemployment 1164
3 1162
research 1161
ge 1159
leadership 1157
ling 1156
believe 1155
ex@@ 1153
technology 1152
jobs 1150
once 1150
my 1148
U@@ 1143
IMF 1142
French 1134
community 1134
him 1134
ked 1134
Bush 1122
find 1120
20 1119
lack 1119
ensure 1116
&quot; 1115
ability 1110
rules 1108
la@@ 1105
simply 1103
British 1102
al-@@ 1100
increased 1099
rule 1097
run 1095
challenge 1094
International 1093
times 1093
party 1091
employment 1090
home 1088
developed 1086
program 1086
poverty 1084
il@@ 1081
hard 1080
position 1078
issue 1076
4 1075
turn 1073
Putin 1071
Of 1070
ors 1069
side 1068
old 1066
systems 1065
president 1064
6 1063
German 1062
1@@ 1059
across 1058
deal 1055
dollar 1055
address 1053
balance 1053
ou@@ 1052
parties 1052
conditions 1049
seem 1049
budget 1048
require 1048
firms 1047
ne@@ 1045
Russian 1043
Turkey 1042
Some 1041
ho@@ 1035
similar 1035
success 1034
mo@@ 1031
ter@@ 1031
data 1030
pay 1029
information 1028
always 1026
is@@ 1026
Central 1025
threat 1024
Britain 1022
true 1022
anti-@@ 1018
opportunity 1018
tic 1018
ance 1016
food 1015
qu@@ 1015
areas 1014
half 1013
largest 1013
administration 1012
decade 1012
consumption 1011
form 1011
officials 1011
ways 1011
Fed 1010
ine 1008
production 1007
ying 1007
UN 1006
4@@ 1003
mis@@ 1002
sure 1001
fall 1000
response 999
Y@@ 998
e-@@ 998
ons 998
short 998
ECB 996
term 993
despite 992
five 992
done 991
u 991
banking 990
line 990
called 985
hope 985
open 984
ru@@ 984
In@@ 983
return 983
requires 982
whose 982
om@@ 981
tive 980
rich 977
Pakistan 974
average 974
ch 973
rest 973
Egypt 971
effort 971
taken 971
until 967
care 965
He 963
focus 963
move 963
exchange 961
ism 960
do@@ 959
ging 959
Americans 958
groups 958
ings 958
productivity 958
t-@@ 958
weapons 958
Islamic 954
advanced 954
consequences 954
said 953
Prime 952
Party 951
model 950
several 949
pressure 948
leading 947
Council 946
cause 946
taking 946
water 945
Con@@ 943
- 942
politicians 942
self-@@ 942
ies 941
ties 940
effects 939
50 933
structural 930
emissions 929
cooperation 927
failed 927
b 926
changes 925
created 925
fe@@ 925
2@@ 924
Such 923
massive 923
deficit 922
start 922
big 921
policymakers 918
strategic 918
th 917
am 915
land 915
ci@@ 914
pa@@ 912
think 912
capacity 911
for@@ 911
Asian 908
Ukraine 908
annual 908
assets 908
young 908
alism 907
Japanese 906
relations 905
ge@@ 904
sub@@ 903
te@@ 903
using 903
seen 901
months 900
sustainable 900
Many 899
beyond 898
bonds 898
war@@ 898
ks 896
no@@ 895
ty 895
powerful 894
Fund 893
gas 893
largely 893
Italy 891
du@@ 891
ten@@ 891
par@@ 890
9 889
main 888
away 887
violence 886
alone 885
group 883
programs 883
ic 882
prevent 882
x@@ 882
UK 880
cu@@ 880
op@@ 879
failure 876
full 876
opposition 876
aid 875
funds 875
necessary 873
coming 872
wealth 872
decline 871
majority 870
us@@ 870
makes 868
expected 864
solution 864
leader 863
period 862
Today 861
man 861
particular 857
sion 856
Palestinian 855
der 855
play 855
lives 854
supply 854
c 852
close 850
having 849
increasing 848
industry 848
Brazil 846
ves 846
campaign 845
found 845
Given 844
Nations 844
influence 843
me@@ 843
perhaps 843
Afghanistan 842
shift 842
ged 840
goods 839
debate 838
look 838
bring 837
lost 836
achieve 835
man@@ 835
benefit 834
began 833
she 832
give 831
ec@@ 830
four 830
natural 829
ke@@ 828
recovery 828
elections 827
30 825
allow 825
rec@@ 824
6@@ 823
union 822
ver 822
decision 821
single 821
official 820
bad 819
ev@@ 819
Z@@ 814
res 814
working 814
po@@ 813
became 812
fear 812
negotiations 812
environment 811
ful 811
later 811
limited 811
exports 810
idea 808
comes 806
improve 805
me 805
modern 805
top 804
2010 802
doing 802
to@@ 802
men 801
owing 801
living 800
voters 799
C 798
innovation 798
nearly 798
keep 795
bi@@ 794
te 792
ving 792
x 791
kind 789
ak@@ 788
authorities 788
job 788
building 787
known 786
civil 785
Commission 784
Muslim 783
gi@@ 782
huge 782
nothing 782
Instead 781
plan 781
y-@@ 780
governance 779
integration 779
# 777
Saudi 777
el 777
agenda 776
economists 774
situation 774
step 774
ver@@ 773
rapid 771
financing 770
Pro@@ 769
corruption 769
experience 768
environmental 767
highly 767
legal 765
total 765
inc@@ 764
opportunities 764
things 764
5 763
min@@ 763
up@@ 763
Israeli 762
Soviet 762
successful 762
tu@@ 761
held 760
investments 760
really 760
bu@@ 759
either 759
First 758
cut 758
hold 757
More 756
powers 756
sing 756
took 756
zed 754
5@@ 753
Kingdom 753
build 751
direct 751
taxes 751
ary 749
comp@@ 748
fundamental 748
thing 748
ze 748
evidence 747
something 747
reach 746
contrast 745
ce 744
id@@ 744
late 744
globalization 743
month 743
All 741
behind 741
recession 741
cities 740
10 739
effect 739
cases 738
collapse 737
fully 737
ow@@ 736
um 735
values 734
account 733
avoid 733
protect 733
sions 733
cor@@ 731
matter 731
goal 730
probably 729
media 728
ren@@ 728
following 727
vote 727
inequality 726
status 724
indeed 722
ators 721
ins 721
boost 720
reality 719
State 717
minister 717
deficits 715
live 713
presidential 712
traditional 712
gra@@ 710
larger 710
defense 709
Now 708
P 708
confidence 707
worse 707
shed 706
res@@ 705
tra@@ 705
Security 704
ses 702
id 701
ve@@ 701
concerns 700
popular 700
Latin 699
established 699
religious 699
the@@ 699
attention 698
call 697
relatively 697
Trump 695
third 695
/ 694
Greek 694
standards 694
40 693
news 692
ste@@ 692
management 691
report 691
individual 690
ent@@ 689
fied 689
reducing 689
Spain 687
include 687
soon 687
mer@@ 685
ters 685
critical 684
meet 684
stop 683
easy 682
understand 682
came 681
ph@@ 680
competition 679
re-@@ 678
tri@@ 678
Congress 677
freedom 677
produce 677
15 676
trillion 676
Com@@ 675
har@@ 675
beginning 674
responsibility 674
ma@@ 673
quickly 673
wrong 673
Mar@@ 670
caused 670
decisions 670
str@@ 670
ten 670
era 668
science 668
7@@ 667
actually 667
ently 667
pen@@ 667
outcome 666
Europeans 665
Ex@@ 665
ble 665
hand 665
mean 665
results 665
tr@@ 665
ative 664
ig@@ 664
mon@@ 664
ure 664
Development 663
meeting 663
ously 663
worldwide 663
According 662
behavior 662
we@@ 662
commitment 660
external 660
certainly 659
post-@@ 659
words 657
tly 655
forced 654
develop 653
reserves 653
2015 651
attacks 650
days 650
movement 650
technologies 650
so-called 649
along 648
becoming 646
1990 645
Great 645
fight 645
moral 645
path 645
Most 643
offer 643
2012 642
NEW 642
creating 642
9@@ 641
intervention 638
com@@ 637
industrial 637
ite 637
relationship 637
weak 637
elsewhere 634
currently 633
raise 633
25 632
National 632
unlikely 632
D 631
T 631
des 631
inf@@ 630
2009 629
basic 629
dec@@ 629
O 628
gain 628
refugees 628
accept 627
air 626
ning 626
160 625
continued 625
recognize 624
acy 623
roughly 622
Mexico 621
austerity 621
crises 621
reasons 621
Al@@ 620
Internet 620
Since 620
claim 620
ta@@ 620
essential 619
les 619
sc@@ 619
2011 618
consider 618
ke 618
performance 618
scale 618
Barack 617
NATO 617
above 617
framework 617
show 617
2013 616
ati@@ 616
dangerous 616
products 616
projects 616
regulation 615
An@@ 614
No 613
generation 612
Global 611
allowed 611
entire 611
ering 611
um@@ 611
insurance 610
au@@ 609
wi@@ 609
millions 608
everyone 606
relative 606
sive 606
Ch@@ 605
Monetary 605
outside 605
Hamas 603
asset 603
general 603
lu@@ 603
source 603
sur@@ 603
ad 602
ber@@ 602
carbon 602
certain 602
creation 602
revolution 601
ca@@ 600
city 600
cont@@ 599
II 598
complex 598
stimulus 598
Arabia 597
aw@@ 597
brought 597
existing 596
sed 596
Although 595
alternative 595
helped 595
oc@@ 595
sanctions 595
amount 594
clearly 594
De@@ 593
Indian 593
advantage 593
quality 593
end@@ 592
let 592
additional 591
independence 590
et 589
ants 588
thereby 587
ved 587
African 586
Th@@ 586
company 586
inv@@ 586
required 586
terrorism 586
cuts 585
def@@ 585
economics 585
won 585
ce@@ 584
fo@@ 584
class 583
maintain 583
prosperity 583
ran@@ 583
Meanwhile 582
mar@@ 582
ms 582
basis 581
below 581
disease 581
rapidly 581
ry 581
vision 581
according 580
stock 580
agreed 579
elected 578
ator 577
victory 577
societies 576
provided 575
19@@ 574
directly 574
aimed 573
alized 573
positive 573
death 572
factors 572
incentives 572
negative 572
related 572
cha@@ 571
deep 571
Second 570
continues 570
ed@@ 570
output 570
September 568
ban@@ 567
ground 567
thinking 567
2014 566
ably 565
sides 565
funding 564
households 564
high-@@ 563
culture 562
ists 562
proposed 561
Federal 560
attack 560
knowledge 560
leave 560
short-term 560
St@@ 559
difference 559
ia 559
iting 559
organizations 559
8@@ 557
ast@@ 557
available 557
family 557
savings 557
businesses 556
damage 556
gu@@ 556
hi@@ 556
nbsp 556
competitive 555
concern 555
ages 554
corporate 554
allies 552
grow 552
actions 551
ars 551
facing 551
try 550
How 549
instead 549
solutions 549
tes 549
choice 548
paid 548
don 547
borders 545
ended 545
ited 545
net 545
test 545
willing 545
ari@@ 544
export 544
service 544
target 544
Palestinians 543
ality 543
individuals 543
ness 543
reduction 543
son 543
Finally 542
project 542
S 541
effectively 541
il 541
den@@ 540
ing@@ 540
light 540
shing 540
argue 539
eventually 539
institutional 539
loans 539
stable 539
neighbors 538
An 537
productive 537
simple 537
Unfortunately 536
ahead 536
appears 536
equity 535
impossible 535
liberal 535
ically 534
answer 533
going 533
ach@@ 532
activities 532
ments 532
Economic 531
area 531
cultural 531
h 531
ob@@ 531
ess 530
prime 530
0.@@ 529
body 529
talks 529
tor 529
flows 528
Mo@@ 527
car@@ 527
ingly 527
internal 527
loss 526
establish 525
increases 525
personal 525
technological 525
turned 525
protection 524
driven 523
crucial 522
pl@@ 522
reduced 522
steps 522
claims 520
enti@@ 520
ist 520
ass@@ 519
goals 519
industries 519
nor 518
throughout 518
whole 518
bur@@ 517
liquidity 517
thought 517
ized 516
office 516
points 516
wages 516
.@@ 514
Lebanon 514
forward 514
overall 514
reached 514
size 514
events 513
gains 513
one-@@ 513
followed 512
ideas 512
so@@ 512
warming 512
gap 511
seeking 511
standing 511
v 510
agree 509
der@@ 509
independent 509
obvious 509
trust 509
Islam 508
100 507
Despite 507
alization 507
burden 507
nature 507
shared 507
losses 506
moment 506
parts 506
saving 506
widely 506
expansion 505
here 505
housing 505
From 504
responsible 504
regions 503
six 503
sectors 502
Only 501
diplomatic 500
politically 500
providing 500
seek 500
significantly 500
2007 499
dollars 499
ined 499
expect 498
ali@@ 497
stronger 497
trying 497
begin 496
changed 496
dly 494
fail 494
ical 494
appear 493
authority 493
consensus 493
core 493
fu@@ 493
transition 493
chance 492
vo@@ 492
wide 492
Reserve 491
agreements 491
ement 491
school 491
ges 490
questions 490
60 489
zing 489
lin@@ 488
matters 488
slow 488
summit 488
efficient 487
fi@@ 486
game 486
space 486
terrorist 486
respect 485
committed 484
cur@@ 484
sovereign 484
sti@@ 484
Iranian 483
consumers 483
plans 483
suggests 483
gen@@ 482
lending 482
sources 482
wage 482
explo@@ 481
follow 481
rely 481
seemed 481
People 480
armed 480
creditors 480
ination 480
Likewise 479
Though 479
extreme 479
previous 479
importance 478
skills 478
communities 477
structure 477
den 476
demands 475
justice 474
regulatory 474
ultimately 474
€ 474
easily 473
range 473
record 473
Be@@ 472
partners 472
your 472
legitimacy 471
promote 471
understanding 471
ut@@ 471
save 470
scientific 470
well-@@ 470
competitiveness 469
produced 469
focused 468
lines 468
press 468
Syrian 467
excessive 467
lies 467
principle 467
vast 467
win 467
ens 466
fl@@ 466
study 466
welfare 466
invest 465
December 464
Gu@@ 464
assistance 464
serve 464
wants 464
wh@@ 464
ps 463
vital 463
ys 463
ep@@ 462
falling 462
go@@ 462
primary 462
Di@@ 461
table 461
direction 459
encourage 459
November 458
argued 458
prospects 458
contrary 457
enable 457
eng@@ 457
feel 457
uses 457
ven@@ 457
vulnerable 457
manufacturing 456
R 455
aging 455
argument 455
drug 455
merely 455
treatment 455
Gaza 453
immediate 453
safety 453
2.@@ 452
Similarly 452
Thus 452
faces 452
reflects 452
subsidies 452
,000 451
bre@@ 451
consumer 451
extent 451
historical 451
lic@@ 451
targets 451
Ad@@ 450
Its 450
YORK 450
dra@@ 450
neither 450
partly 450
Libya 449
Treaty 449
adopted 449
pursue 449
wa@@ 449
aries 448
compared 448
ili@@ 448
ish 448
kers 448
takes 448
uc@@ 448
exp@@ 447
ines 447
ire 447
provides 447
students 447
tend 446
20@@ 445
Clinton 445
ency 445
ian 445
substantial 445
tt@@ 445
18@@ 444
book 444
due 444
implement 444
uncertainty 444
bilateral 443
cul@@ 443
ori@@ 443
sometimes 443
Abe 442
active 442
ational 442
federal 442
surplus 442
z 442
E 441
lot 441
sted 441
story 441
Ar@@ 440
a-@@ 440
back@@ 440
stand 440
worth 440
border 439
ched 439
child 439
os 439
1.@@ 438
reflect 438
ces 437
earlier 437
equal 437
stage 437
standard 437
2005 436
En@@ 435
ir 435
sel@@ 435
spread 435
trans@@ 435
Ma@@ 434
regard 434
renminbi 434
therefore 434
11 433
spend 433
strengthen 433
alists 432
head 432
severe 432
thousands 432
ud@@ 432
1980 431
Not 431
drugs 431
normal 431
pu@@ 431
went 431
Muslims 430
built 430
models 430
push 430
respond 430
unable 430
commercial 429
imp@@ 429
manage 429
pri@@ 429
coalition 428
promises 428
sup@@ 428
wars 428
limits 427
membership 427
buy 426
faster 426
finally 426
ory 426
principles 426
theory 426
various 426
ai 425
expectations 425
Argentina 424
London 424
doubt 424
option 424
property 424
shows 424
biggest 423
secure 423
Le@@ 422
latest 422
sion@@ 422
struggle 422
tools 422
Both 421
calls 421
counter@@ 421
fighting 420
safe 420
special 420
Ab@@ 419
Cold 419
alist 419
anything 419
ard 419
izing 419
wor@@ 419
aged 418
pres@@ 418
trend 418
designed 417
ned 417
Li@@ 416
abroad 416
becomes 416
managed 416
spent 416
Perhaps 415
emb@@ 415
nation@@ 415
sec@@ 415
stands 415
announced 414
mass 414
schools 414
tically 414
views 414
whom 414
an-@@ 413
near 413
George 412
cancer 411
ders 411
supported 411
uni@@ 411
fore@@ 410
giving 410
sha@@ 410
0@@ 409
G-20 409
Trade 409
center 409
easing 409
ization 409
pan@@ 409
2001 408
Last 408
initiative 408
lose 408
pro-@@ 408
June 407
achieved 407
diseases 407
police 407
radical 407
accounts 406
dy 406
oun@@ 406
started 406
His 405
activity 405
ects 405
enormous 405
prove 405
Their 404
changing 404
che@@ 404
else 404
fin@@ 404
tics 404
usually 404
ones 403
referendum 403
stance 403
trading 403
Ne@@ 402
alize 402
asked 402
happen 402
limit 402
med 402
payments 402
resulting 402
fuel 401
immigration 401
macroeconomic 401
suggest 401
zero 401
efficiency 400
Paris 399
incomes 399
York 398
arms 398
bar@@ 398
context 398
currencies 398
improved 398
precisely 398
week 398
2000 397
Republican 397
Su@@ 397
causes 397
middle 397
ong 397
places 397
shown 397
treaty 397
M 396
ang@@ 396
ected 396
raising 396
happened 395
mind 395
possibility 395
specific 395
threats 395
tor@@ 395
Korean 394
considered 394
fund 394
Brexit 393
circumstances 393
favor 393
off@@ 393
training 393
Why 392
az@@ 392
Consider 391
establishment 391
fying 391
Eastern 390
differences 390
gold 390
household 390
hu@@ 390
our@@ 390
s-@@ 390
migration 389
revenues 389
soft 389
tried 389
Secretary 388
mostly 388
raised 388
widespread 388
General 387
bankers 387
fa@@ 387
sovereignty 387
st-@@ 387
May 386
dic@@ 386
families 386
nation 386
tion@@ 386
Ac@@ 385
absence 385
ai@@ 385
launched 385
leaving 385
nations 385
running 385
sm 385
sustained 385
viewed 385
70 384
broader 384
considerable 384
illi@@ 384
mat@@ 384
room 384
urban 384
w 384
opinion 383
boom 382
capita 382
loc@@ 382
remained 382
Because 381
Sch@@ 381
addition 381
estimated 381
ethnic 381
fell 381
fy 381
met 381
ner 381
profits 381
2006 380
Poland 380
construction 380
ics 380
low-@@ 380
present 380
tro@@ 380
army 379
laws 379
speech 379
deliver 378
factor 378
hundreds 378
instability 378
pat@@ 378
sw@@ 378
unprecedented 378
worked 378
198@@ 377
Sh@@ 377
multilateral 377
subject 377
Ro@@ 376
faced 376
himself 376
message 376
promise 376
borrowing 375
hand@@ 375
ile 375
conflicts 374
depend 374
est@@ 374
helping 374
ious 374
suffering 374
bri@@ 373
default 373
drive 373
forms 373
Those 372
f 372
fair 372
received 372
Islamist 371
farmers 371
hit 371
involved 371
ratio 371
succeed 371
F 370
gone 370
medical 370
agencies 369
closer 369
quarter 369
re 369
actors 368
cal 368
depends 368
ff 368
ill@@ 368
task 368
John 367
attempt 367
cl@@ 367
comprehensive 367
final 367
lan@@ 367
operations 367
rural 367
ately 366
ay 366
danger 366
told 366
Organization 365
allowing 365
constitution 365
ensuring 365
ni@@ 365
tensions 365
candidates 364
deeply 364
died 364
fication 364
mi@@ 364
truth 364
Another 363
appropriate 363
associated 363
health-care 363
learn 363
quite 363
recognized 363
B 362
broad 362
continent 362
entirely 362
ess@@ 362
everything 362
imposed 362
returns 362
12 361
Co@@ 361
collective 361
democracies 361
gl@@ 361
list 361
permanent 361
Is 360
base 360
commodity 360
est 360
mission 360
person 360
br@@ 359
green 359
ik@@ 359
mp@@ 359
ss@@ 359
unless 359
controls 358
debts 358
emerged 358
ize 358
por@@ 358
revenue 358
supposed 358
troops 358
LONDON 357
cle@@ 357
expand 357
getting 357
upon 357
current-account 356
ect 356
expensive 356
Ireland 355
air@@ 355
anyone 355
coal 355
economist 355
heart 355
migrants 355
round 355
Financial 354
University 354
generally 354
goes 354
mark 354
name 354
resistance 354
all@@ 353
highest 353
regimes 353
sen@@ 353
sh 353
southern 353
weeks 353
Sea 352
choose 352
overcome 352
populations 352
road 352
signed 352
sound 352
aff@@ 351
contribute 351
fuels 351
ot@@ 351
regulations 351
tan@@ 351
deaths 350
ear@@ 350
greatest 350
leverage 350
mainly 350
vari@@ 350
During 349
killed 349
ongoing 349
ths 349
tors 349
Man@@ 348
front 348
pe 348
proved 348
sharing 348
electoral 347
ening 347
scientists 347
sufficient 347
Palestine 346
Sunni 346
ft 346
implies 346
intelligence 346
mor@@ 346
tered 346
Bo@@ 345
Euro@@ 345
Pe@@ 345
afford 345
agricultural 345
ching 345
head@@ 345
stri@@ 345
July 344
Republic 344
Revolution 344
dependent 344
diplomacy 344
ak 343
decided 343
promised 343
restore 343
declared 342
electricity 342
generate 342
pre-@@ 342
presidency 342
slowdown 342
80 341
disp@@ 341
sharply 341
violent 341
visit 341
zone 341
bro@@ 340
field 340
her@@ 340
liber@@ 340
star@@ 340
0-@@ 339
conference 339
deflation 339
outcomes 339
DC 338
ask 338
combined 338
credibility 338
disaster 338
join 338
otherwise 338
practice 338
practices 338
rac@@ 338
spe@@ 338
can@@ 337
continuing 337
potentially 337
proposal 337
stra@@ 337
Court 336
Merkel 336
break 336
gh@@ 336
implemented 336
pace 336
played 336
receive 336
smaller 336
tic@@ 336
top@@ 336
So@@ 335
Washington 335
conventional 335
defined 335
fallen 335
improving 335
ma 335
measure 335
ment@@ 335
ordinary 335
ping 335
sought 335
zation 335
fast 334
participation 334
willingness 334
affected 333
ah@@ 333
amp@@ 333
att@@ 333
mid-@@ 333
to-@@ 333
wanted 333
Al 332
Our 332
Sarkozy 332
alliance 332
cash 332
cutting 332
ef@@ 332
identity 332
planet 332
tional 332
worst 332
bra@@ 331
hands 331
2004 330
January 330
Over 330
adjustment 330
emp@@ 330
house 330
numbers 330
Mon@@ 329
af@@ 329
ase 329
capitalism 329
leg@@ 329
moving 329
strategies 329
transformation 329
Un@@ 328
ck 328
ide@@ 328
options 328
style 328
universal 328
Democratic 327
House 327
ain@@ 327
bond 327
cri@@ 327
intended 327
pose 327
Car@@ 326
legislation 326
lesson 326
rhetoric 326
Nor 325
amounts 325
backed 325
bubble 325
estimates 325
geopolitical 325
keeping 325
ns 325
sharp 325
sho@@ 325
sting 325
Hong 324
Rather 324
affairs 324
controlled 324
rati@@ 324
regulators 324
resolve 324
ruling 324
Then 323
imbalances 323
populist 323
positions 323
strength 323
type 323
born 322
ministers 322
priority 322
signs 322
advance 321
belief 321
combination 321
degree 321
driving 321
experienced 321
movements 321
offered 321
peaceful 321
poli@@ 321
CO2 320
ining 320
patients 320
prospect 320
shes 320
territory 320
vers 320
Per@@ 319
ang 319
coun@@ 319
eding 319
includes 319
poorest 319
saw 319
Assad 318
Im@@ 318
col@@ 318
constitutional 318
fears 318
imports 318
secular 318
smo@@ 318
speci@@ 318
Kong 317
cycle 317
inevitable 317
inst@@ 317
learned 317
organization 317
parliament 317
ready 317
sign 317
sign@@ 317
sustain 317
undermine 317
whatever 317
CAMBRIDGE 316
Kremlin 316
Parliament 316
hy@@ 316
ward 316
For@@ 315
March 315
av@@ 315
initiatives 315
resolution 315
.5 314
Jewish 314
candidate 314
easier 314
gave 314
prepared 314
restructuring 314
196@@ 313
Se@@ 313
ered 313
hardly 313
occurred 313
1970 312
3.@@ 312
Third 312
Xi 312
ending 312
firm 312
prec@@ 312
trac@@ 312
Just 311
Shia 311
conservative 311
explain 311
r 311
suffer 311
towards 311
victims 311
works 311
commitments 310
everywhere 310
percentage 310
197@@ 309
ats 309
drop 309
enterprises 309
legitimate 309
looking 309
mechanisms 309
desire 308
exit 308
tical 308
immigrants 307
lessons 307
o-@@ 307
ound 307
ash@@ 306
barriers 306
causing 306
cer@@ 306
coll@@ 306
dependence 306
ery 306
iled 306
implications 306
pped 306
reflected 306
setting 306
Indonesia 305
crimes 305
ker 305
language 305
posed 305
promoting 305
ron@@ 305
ship 305
yed 305
clo@@ 304
impose 304
é@@ 304
Ser@@ 303
Taiwan 303
looks 303
losing 303
objectives 303
senior 303
IC@@ 302
although 302
analysis 302
arm@@ 302
generations 302
Climate 301
aim 301
distribution 301
dynamic 301
grown 301
product 301
rev@@ 301
talk 301
ture 301
hours 300
intellectual 300
ster 300
aring 299
compromise 299
determined 299
experts 299
fueled 299
mechanism 299
relief 299
temporary 299
vis@@ 299
45 298
believed 298
conver@@ 298
developments 298
objective 298
offers 298
ot 298
protests 298
tal@@ 298
Taliban 297
holding 297
ore 297
seven 297
sm@@ 297
ss 297
virtually 297
credible 296
healthy 296
heavily 296
solve 296
susp@@ 296
whereas 296
accepted 295
guarantee 295
hopes 295
proce@@ 295
ther 295
viol@@ 295
Me@@ 294
blame 294
determine 294
expanding 294
pping 294
scenario 294
supporters 294
Netanyahu 293
elite 293
ight 293
immediately 293
long-@@ 293
mental 293
paying 293
promising 293
que 293
refugee 293
2003 292
Par@@ 292
affect 292
annually 292
bringing 292
ist@@ 292
networks 292
pattern 292
presence 292
rel@@ 292
shape 292
unity 292
October 291
bit 291
bound 291
debt-@@ 291
defeat 291
ra 291
super@@ 291
underlying 291
via 291
conf@@ 290
deeper 290
ero@@ 290
playing 290
quantitative 290
ris@@ 290
sum@@ 290
ton 290
turning 290
weight 290
agriculture 289
cing 289
divided 289
equivalent 289
gener@@ 289
pi@@ 289
thin@@ 289
Communist 288
concerned 288
destruction 288
digital 288
perceived 288
physical 288
players 288
trends 288
truly 288
dri@@ 287
sli@@ 287
summer 287
swe@@ 287
tw@@ 287
urgent 287
Nor@@ 286
carry 286
date 286
described 286
flow 286
indic@@ 286
iz@@ 286
leads 286
claimed 285
crow@@ 285
engage 285
gri@@ 285
ories 285
proposals 285
twentieth 285
ASEAN 284
addressing 284
aling 284
ath 284
court 284
linked 284
mistake 284
perspective 284
prof@@ 284
reg@@ 284
14 283
W. 283
acts 283
complete 283
exist 283
law@@ 283
starting 283
ation@@ 282
comm@@ 282
declining 282
ill 282
learning 282
necessarily 282
possibly 282
sent 282
strengthening 282
typically 282
Without 281
apparent 281
authoritarian 281
broad@@ 281
els 281
requirements 281
terrorists 281
down@@ 280
dramatically 280
figure 280
recognition 280
relevant 280
studies 280
Gulf 279
closely 279
comple@@ 279
economically 279
hor@@ 279
minority 279
over-@@ 279
poses 279
predic@@ 279
remarkable 279
worry 279
Depression 278
cru@@ 278
nationalist 278
opponents 278
represents 278
critics 277
excess 277
maintaining 277
opening 277
ring 277
sa@@ 277
seriously 277
technical 277
unsustainable 277
US-@@ 276
Venezuela 276
addressed 276
aggregate 276
alizing 276
connected 276
dict@@ 276
equally 276
nationalism 276
northern 276
sk@@ 276
supporting 276
unlike 276
useful 276
Republicans 275
Two 275
bl@@ 275
choices 275
design 275
diver@@ 275
formal 275
friends 275
knows 275
pension 275
settlement 275
solidarity 275
territorial 275
Chile 274
Other 274
ches 274
dramatic 274
ences 274
event 274
impe@@ 274
meant 274
race 274
umb@@ 274
Qaeda 273
adopt 273
demonstrated 273
inclusive 273
mandate 273
tre@@ 273
However 272
asser@@ 272
contributed 272
discussion 272
eight 272
extremely 272
han@@ 272
mir@@ 272
pic@@ 272
served 272
200@@ 271
Australia 271
Bar@@ 271
Vietnam 271
arrangements 271
bear 271
civilian 271
figures 271
occur 271
ade 270
exchange-rate 270
ff@@ 270
moderate 270
pollution 270
sell 270
stagnation 270
surprising 270
500 269
acting 269
begun 269
pursuing 269
shi@@ 269
unique 269
August 268
ambitious 268
equ@@ 268
parliamentary 268
purpose 268
struc@@ 268
team 268
establishing 267
ga@@ 267
gs 267
none 267
structures 267
trouble 267
Fortunately 266
Treasury 266
assume 266
issued 266
scope 266
Jews 265
deb@@ 265
die 265
surprise 265
Here 264
Sa@@ 264
appeared 264
constitu@@ 264
double 264
duc@@ 264
liberalization 264
online 264
profit 264
sustainability 264
genuine 263
ini@@ 263
pressures 263
reb@@ 263
row@@ 263
track 263
with@@ 263
board 262
dialogue 262
emergence 262
plants 262
rup@@ 262
vers@@ 262
Cameron 261
Jordan 261
clu@@ 261
da 261
elites 261
exactly 261
gained 261
lif@@ 261
lity 261
men@@ 261
religion 261
represent 261
tur@@ 261
tured 261
5-@@ 260
balanced 260
billions 260
cap@@ 260
dered 260
enter 260
humanitarian 260
ice 260
institution 260
purchases 260
robust 260
squ@@ 260
transparency 260
ury 260
ye@@ 260
Democrats 259
Italian 259
Or@@ 259
bed 259
fra@@ 259
partner 259
passed 259
processes 259
reasonable 259
survival 259
April 258
borrow 258
break@@ 258
consistent 258
encouraging 258
ented 258
integrated 258
kept 258
restrictions 258
Like 257
Mal@@ 257
ecting 257
launch 257
plan@@ 257
producers 257
stake 257
weakness 257
Beijing 256
No@@ 256
Vladimir 256
Will 256
ce-@@ 256
co-@@ 256
decision-making 256
fewer 256
gradually 256
host 256
profound 256
tests 256
! 255
historic 255
0,000 254
Hezbollah 254
Until 254
adequate 254
chief 254
hol@@ 254
producing 254
read@@ 254
transfer 254
aggressive 253
emerge 253
function 253
inadequate 253
ounded 253
pled 253
putting 253
reported 253
respon@@ 253
risky 253
shocks 253
understood 253
Nobel 252
Under 252
ack@@ 252
atory 252
bul@@ 252
char@@ 252
decide 252
effectiveness 252
flo@@ 252
heavy 252
joint 252
mention 252
ong@@ 252
remaining 252
taxpayers 252
terror 252
volatility 252
Governments 251
concept 251
constraints 251
eds 251
engagement 251
fire 251
grew 251
priorities 251
tou@@ 251
tual 251
18 250
Or 250
X@@ 250
battle 250
bottom 250
dominated 250
educational 250
reaching 250
sely 250
ster@@ 250
Growth 249
achieving 249
analy@@ 249
cent@@ 249
cre@@ 249
criticism 249
ell 249
ends 249
genetic 249
homes 249
link 249
meaning 249
placed 249
rest@@ 249
van@@ 249
Erdoğan 248
contracts 248
essentially 248
imag@@ 248
ing-@@ 248
oriented 248
published 248
regarded 248
Kim 247
Wall 247
centuries 247
innovative 247
observers 247
says 247
securities 247
194@@ 246
Investment 246
Israelis 246
OECD 246
anti@@ 246
boosting 246
calcul@@ 246
educated 246
eled 246
employees 246
enabled 246
pressing 246
reserve 246
resource 246
sea 246
surely 246
universities 246
ust 246
00 245
England 245
add 245
failures 245
implementation 245
moved 245
nal 245
ped 245
ratic 245
righ@@ 245
ut 245
Si@@ 244
corporations 244
costly 244
harm 244
investing 244
lab@@ 244
on-@@ 244
private-sector 244
sal@@ 244
transport 244
youth 244
Kosovo 243
Social 243
WASHINGTON 243
added 243
ances 243
ay@@ 243
capable 243
custom@@ 243
defend 243
exposed 243
financed 243
large-scale 243
lie 243
logy 243
proliferation 243
sequ@@ 243
ug@@ 243
17 242
193@@ 242
Har@@ 242
Iraqi 242
atic 242
cheap 242
compete 242
cra@@ 242
embar@@ 242
happens 242
identify 242
incentive 242
primarily 242
wave 242
Portugal 241
ban 241
ity-@@ 241
mere 241
realistic 241
showed 241
welcome 241
Foreign 240
bailout 240
disputes 240
emerging-market 240
gar@@ 240
mu@@ 240
opposed 240
risk-@@ 240
stay 240
uri@@ 240
90 239
Once 239
apply 239
attractive 239
chi@@ 239
cla@@ 239
dro@@ 239
enhance 239
felt 239
home@@ 239
intensive 239
oper@@ 239
planning 239
practical 239
reas@@ 239
stic 239
CA@@ 238
acc@@ 238
arch@@ 238
fossil 238
my@@ 238
regardless 238
targeted 238
Egyptian 237
Ra@@ 237
Singapore 237
apo@@ 237
asu@@ 237
carried 237
continu@@ 237
eliminate 237
embrace 237
engaged 237
reports 237
tened 237
trial 237
alike 236
buying 236
concluded 236
condition 236
failing 236
finding 236
included 236
introduced 236
series 236
sto@@ 236
tle 236
transfers 236
wider 236
195@@ 235
Committee 235
clean 235
eli@@ 235
fron@@ 235
heads 235
killing 235
oms 235
oned 235
periphery 235
suffered 235
He@@ 234
Poli@@ 234
accompanied 234
approaches 234
bodies 234
fle@@ 234
hal@@ 234
humans 234
loo@@ 234
material 234
modest 234
ner@@ 234
rejected 234
stem 234
tough 234
votes 234
wind 234
13 233
Nigeria 233
cy 233
emergency 233
opposite 233
strongly 233
yield 233
aver@@ 232
correc@@ 232
imagine 232
int@@ 232
intensi@@ 232
lam@@ 232
micro@@ 232
rever@@ 232
shock 232
speak 232
tax@@ 232
Fran@@ 231
allows 231
ast 231
crime 231
ome 231
preventing 231
sible 231
species 231
state-owned 231
· 231
capabilities 230
ced 230
ession 230
looked 230
notably 230
operating 230
repeatedly 230
rin@@ 230
supplies 230
tim@@ 230
work@@ 230
Countries 229
Mubarak 229
bio@@ 229
bor@@ 229
capit@@ 229
dering 229
ep 229
log@@ 229
pushed 229
survive 229
2020 228
Health 228
bankruptcy 228
bubbles 228
budgets 228
managers 228
multi-@@ 228
occupation 228
woman 228
200 227
Defense 227
El@@ 227
dest@@ 227
faith 227
ideological 227
inflows 227
negotiating 227
newly 227
public-@@ 227
statement 227
writ@@ 227
Beyond 226
ach 226
elements 226
girls 226
ls 226
malaria 226
quo 226
resolved 226
sentiment 226
subsidi@@ 226
Bu@@ 225
Chancellor 225
Lo@@ 225
bon@@ 225
creates 225
deterior@@ 225
escape 225
exception 225
ger 225
liter@@ 225
south 225
spo@@ 225
stan@@ 225
QE 224
Rom@@ 224
ama 224
amp 224
any@@ 224
closed 224
gre@@ 224
humanity 224
instruments 224
poss@@ 224
search 224
speed 224
starters 224
surge 224
tal 224
treated 224
weaker 224
Canada 223
My 223
Nonetheless 223
ale 223
atives 223
ber 223
charge 223
conducted 223
contain 223
dar@@ 223
depression 223
fate 223
holds 223
obligations 223
protecting 223
pul@@ 223
2002 222
ain 222
gan@@ 222
got 222
investig@@ 222
legacy 222
paper 222
ress 222
threatened 222
undermining 222
wing 222
á@@ 222
-led 221
35 221
ection 221
expense 221
generated 221
incid@@ 221
le-@@ 221
parents 221
turmoil 221
valuable 221
ve-@@ 221
Ca@@ 220
Colombia 220
February 220
Pakistani 220
cal@@ 220
confront 220
daily 220
disrup@@ 220
falls 220
fan@@ 220
itation 220
polls 220
sis 220
surprisingly 220
wait 220
word 220
David 219
Soci@@ 219
appe@@ 219
completely 219
cyclical 219
fac@@ 219
father 219
flexibility 219
hard@@ 219
negotiate 219
organiz@@ 219
prosecu@@ 219
roads 219
suggested 219
sured 219
tting 219
uncertain 219
voting 219
Modi 218
Ri@@ 218
Te@@ 218
engineering 218
igh@@ 218
ket 218
non@@ 218
oning 218
oring 218
revolutionary 218
sheets 218
someone 218
sort 218
successfully 218
tail@@ 218
threatening 218
wake 218
withdrawal 218
L 217
NA@@ 217
accounting 217
advances 217
ass 217
ble@@ 217
bs 217
cover 217
delivered 217
devi@@ 217
eth@@ 217
forcing 217
gr@@ 217
implementing 217
obs@@ 217
offset 217
operate 217
post@@ 217
slowly 217
transi@@ 217
viable 217
Furthermore 216
Georgia 216
Russians 216
Spring 216
Sweden 216
aded 216
barely 216
count 216
decisive 216
er-@@ 216
fragile 216
fre@@ 216
functioning 216
ie@@ 216
ignore 216
lim@@ 216
logic 216
near-@@ 216
package 216
power@@ 216
spir@@ 216
tionary 216
users 216
vic@@ 216
2030 215
ah 215
dem@@ 215
ential 215
funded 215
less@@ 215
replace 215
shareholders 215
é 215
Street 214
Yes 214
centers 214
compla@@ 214
kan 214
latter 214
ligh@@ 214
mutual 214
one-third 214
pushing 214
released 214
ressed 214
run@@ 214
seemingly 214
tru@@ 214
4.@@ 213
Bal@@ 213
Inter@@ 213
Jo@@ 213
Sudan 213
Tunisia 213
contribution 213
customers 213
equality 213
gives 213
high@@ 213
hom@@ 213
ils 213
nowadays 213
painful 213
ruled 213
skilled 213
substantially 213
art 212
criminal 212
regi@@ 212
rent 212
tary 212
16 211
Cha@@ 211
Donald 211
Energy 211
Paul 211
calling 211
consolidation 211
declined 211
interest-rate 211
network 211
nom@@ 211
tell 211
zes 211
1960 210
actual 210
aware 210
convinced 210
coordination 210
expanded 210
gence 210
helps 210
inj@@ 210
kinds 210
moun@@ 210
ose 210
threaten 210
wrote 210
yp@@ 210
Ste@@ 209
ables 209
communist 209
governmental 209
kes 209
realize 209
sta@@ 209
tain@@ 209
wit@@ 209
AR@@ 208
ague 208
cy@@ 208
ethical 208
ier 208
improvement 208
marke@@ 208
quarters 208
version 208
We@@ 207
Wor@@ 207
appreciation 207
bloc@@ 207
comb@@ 207
corrupt 207
devastating 207
divi@@ 207
domin@@ 207
ferti@@ 207
fic@@ 207
gn@@ 207
int 207
nominal 207
pas@@ 207
rats 207
tiz@@ 207
ace 206
badly 206
eyes 206
ideal 206
rose 206
saying 206
tigh@@ 206
transactions 206
-up 205
Can 205
Mu@@ 205
and-@@ 205
and@@ 205
asi@@ 205
attract 205
ben@@ 205
earnings 205
reliable 205
resulted 205
revi@@ 205
sales 205
variety 205
ya 205
Christian 204
Nevertheless 204
arguments 204
bold 204
charges 204
conclusion 204
correct 204
fixed 204
hear@@ 204
initial 204
pay@@ 204
pp@@ 204
rescue 204
roc@@ 204
vie@@ 204
ater@@ 203
counter 203
enabling 203
encies 203
evalu@@ 203
lef@@ 203
stress 203
wise 203
&#91; 202
&#93; 202
Abbas 202
Germans 202
Partnership 202
Plan 202
Still 202
Supreme 202
ambitions 202
arily 202
ba@@ 202
conduct 202
contributions 202
counterparts 202
demonstrate 202
depreciation 202
direc@@ 202
dominant 202
expressed 202
facilities 202
invasion 202
oli@@ 202
protest 202
renewed 202
strike 202
surpluses 202
united 202
Cri@@ 201
alternatives 201
bal@@ 201
bill 201
borrowers 201
eling 201
guarantees 201
moder@@ 201
od@@ 201
previously 201
restric@@ 201
system@@ 201
ta 201
2016 200
Saddam 200
attempts 200
civilians 200
cou@@ 200
explanation 200
happy 200
interventions 200
joined 200
mag@@ 200
mobile 200
predict 200
qui@@ 200
renewable 200
responsibilities 200
review 200
tation 200
Ban@@ 199
Brotherhood 199
Rights 199
accountability 199
consul@@ 199
cross-border 199
des@@ 199
discussions 199
downward 199
dream 199
harder 199
inevitably 199
mistakes 199
reaction 199
subsequent 199
twenty-first 199
… 199
AIDS 198
HIV 198
Human 198
cies 198
eded 198
financial-@@ 198
illegal 198
marked 198
modern@@ 198
momentum 198
payment 198
professional 198
ran 198
retirement 198
returned 198
rulers 198
systemic 198
ung 198
Assembly 197
Morsi 197
Turkish 197
Whether 197
acted 197
appeal 197
ards 197
counter-@@ 197
doesn 197
flexible 197
ideology 197
lasting 197
nuclear-@@ 197
organized 197
provision 197
purchase 197
successor 197
uring 197
Burma 196
Mor@@ 196
books 196
draw 196
neu@@ 196
norms 196
opened 196
revealed 196
ships 196
sil@@ 196
soci@@ 196
stu@@ 196
two-@@ 196
weakening 196
aled 195
alle@@ 195
anism 195
assessment 195
auth@@ 195
diversi@@ 195
extended 195
leaves 195
medi@@ 195
methods 195
offering 195
prev@@ 195
proportion 195
shifting 195
sian 195
tioned 195
transparent 195
warning 195
AN@@ 194
adverse 194
applied 194
bing 194
examples 194
exemp@@ 194
formed 194
in-@@ 194
ol 194
participants 194
stat@@ 194
stimulate 194
stocks 194
Atlantic 193
Netherlands 193
Unlike 193
alities 193
chronic 193
concerning 193
gg@@ 193
grounds 193
headed 193
ites 193
lier 193
lived 193
managing 193
minist@@ 193
ownership 193
refused 193
separ@@ 193
soldiers 193
undoubtedly 193
usual 193
visible 193
Sal@@ 192
anger 192
ased 192
consistently 192
contrac@@ 192
divide 192
eing 192
guide 192
happening 192
knew 192
mur@@ 192
peak 192
san@@ 192
tain 192
wealthy 192
Dis@@ 191
Philippines 191
approval 191
attribu@@ 191
block 191
brutal 191
confrontation 191
demanding 191
discipline 191
elled 191
evol@@ 191
gender 191
ounds 191
person@@ 191
ple@@ 191
promp@@ 191
publi@@ 191
rep@@ 191
stopped 191
tho@@ 191
-based 190
G 190
Rec@@ 190
bab@@ 190
consequence 190
deposits 190
eastern 190
encouraged 190
facilitate 190
first-@@ 190
gets 190
imperative 190
raises 190
responses 190
ries 190
runs 190
supp@@ 190
tali@@ 190
tradition 190
Cor@@ 189
compensation 189
complicated 189
deals 189
diverse 189
experim@@ 189
extremists 189
graph@@ 189
hi 189
ky 189
negotiated 189
ony 189
original 189
partnership 189
pol@@ 189
reverse 189
similarly 189
struggling 189
television 189
thy 189
warned 189
1930 188
Peace 188
aside 188
bas@@ 188
bigger 188
blood 188
concep@@ 188
contradic@@ 188
dated 188
develop@@ 188
diagno@@ 188
except 188
progressive 188
proven 188
pursued 188
radic@@ 188
siders 188
solar 188
ther@@ 188
toler@@ 188
trials 188
Keynes 187
Spanish 187
advantages 187
aftermath 187
ater 187
birth 187
bling 187
de-@@ 187
demographic 187
doub@@ 187
exercise 187
floo@@ 187
focusing 187
fundamentally 187
generating 187
gible 187
istic 187
ming 187
phase 187
plant 187
pointed 187
port 187
publicly 187
rarely 187
tment 187
24 186
300 186
May@@ 186
Sen@@ 186
bet@@ 186
concrete 186
coup 186
demonstr@@ 186
extend 186
globally 186
minimum 186
ser@@ 186
social-@@ 186
somewhat 186
strengthened 186
twice 186
weakened 186
weather 186
1990s 185
Islamists 185
PARIS 185
Qaddafi 185
Tran@@ 185
cars 185
damaging 185
dead 185
diff@@ 185
invested 185
kill@@ 185
lacks 185
ney 185
pain 185
properly 185
prosperous 185
renew@@ 185
ust@@ 185
winning 185
worried 185
yields 185
Mediterranean 184
cent 184
match 184
mortgage 184
serves 184
shares 184
sophisticated 184
state-@@ 184
triggered 184
turns 184
vice 184
22 183
Can@@ 183
Department 183
Ha@@ 183
Myanmar 183
Sha@@ 183
Vi@@ 183
adver@@ 183
by@@ 183
computer 183
ental 183
expenditures 183
foreign-exchange 183
grade 183
initially 183
low-carbon 183
measured 183
narrow 183
occupied 183
participate 183
replaced 183
sist@@ 183
streets 183
unions 183
voice 183
wards 183
win@@ 183
written 183
1999 182
California 182
Kar@@ 182
Policy 182
Sy@@ 182
Thailand 182
atmosphere 182
brings 182
debates 182
emo@@ 182
existence 182
identified 182
improvements 182
ju@@ 182
lar@@ 182
low@@ 182
onic 182
protec@@ 182
ration@@ 182
relationships 182
resp@@ 182
root 182
succeeded 182
ty-@@ 182
wisdom 182
Change 181
Op@@ 181
Po@@ 181
Qu@@ 181
academic 181
assess@@ 181
ature 181
component 181
defin@@ 181
directed 181
drawn 181
enhancing 181
extra 181
governing 181
pr@@ 181
rea@@ 181
recover 181
reliance 181
researchers 181
send 181
transform 181
voc@@ 181
1.5 180
Much 180
arri@@ 180
autoc@@ 180
benefited 180
bol@@ 180
brain 180
chaos 180
collapsed 180
destroy 180
disappoin@@ 180
full-@@ 180
heard 180
ial 180
interpre@@ 180
may@@ 180
multi@@ 180
owners 180
purchasing 180
rein@@ 180
self 180
stated 180
types 180
Kenya 179
Pacific 179
Res@@ 179
adapt 179
bac@@ 179
broadly 179
innovations 179
jo@@ 179
mortgages 179
north 179
ous@@ 179
overwhelming 179
polar 179
spon@@ 179
tures 179
university 179
Cuba 178
San@@ 178
ann@@ 178
diversity 178
fails 178
hunger 178
lah 178
lau@@ 178
logical 178
middle-income 178
nine 178
planned 178
poorer 178
simultaneously 178
sol@@ 178
stories 178
surveillance 178
syn@@ 178
three-@@ 178
16@@ 177
Act 177
Afghan 177
Mic@@ 177
You 177
ames 177
atten@@ 177
carefully 177
coordinated 177
courts 177
dealing 177
discrimination 177
frequently 177
gaining 177
ld 177
lessly 177
makers 177
notion 177
proper 177
ques@@ 177
reli@@ 177
scheme 177
scre@@ 177
selling 177
spring 177
station 177
tations 177
tested 177
tici@@ 177
two-thirds 177
vehicles 177
17@@ 176
Brussels 176
Political 176
Pre@@ 176
Serbia 176
ath@@ 176
bran@@ 176
dist@@ 176
facts 176
image 176
irs 176
of@@ 176
pla@@ 176
reform@@ 176
thanks 176
verse 176
weaken 176
Authority 175
BRICS 175
Let 175
None 175
abandon 175
argues 175
black 175
considerably 175
cross@@ 175
dispute 175
door 175
downturn 175
enting 175
execu@@ 175
island 175
isolation 175
obstacles 175
quanti@@ 175
read 175
requ@@ 175
separate 175
sets 175
six@@ 175
suddenly 175
supposedly 175
taxation 175
treat 175
undermined 175
0s 174
Institute 174
ate@@ 174
band 174
difficulties 174
executive 174
form@@ 174
fourth 174
hin@@ 174
index 174
k-@@ 174
len 174
materials 174
mitted 174
multiple 174
perfect 174
showing 174
spec@@ 174
travel 174
H 173
Hu@@ 173
advoc@@ 173
app@@ 173
arming 173
bes 173
comman@@ 173
creative 173
far-reaching 173
ger@@ 173
ham@@ 173
hun@@ 173
ine@@ 173
mainstream 173
nur@@ 173
serving 173
spirit 173
ultimate 173
Ge@@ 172
Yemen 172
adly 172
aims 172
ash 172
cop@@ 172
escal@@ 172
import 172
lay 172
narrative 172
now@@ 172
presidents 172
resses 172
stal@@ 172
1989 171
201@@ 171
21 171
Agency 171
Angela 171
Any 171
CI@@ 171
Stability 171
celebr@@ 171
coverage 171
cure 171
di 171
displaced 171
ease 171
emphasis 171
l-@@ 171
motiv@@ 171
oll@@ 171
onto 171
patterns 171
phenomenon 171
public@@ 171
secret 171
shrin@@ 171
tech 171
tivity 171
transformed 171
Agreement 170
advice 170
chan@@ 170
communism 170
equipment 170
fix@@ 170
foreign-policy 170
geo@@ 170
inclusion 170
limiting 170
list@@ 170
moves 170
new@@ 170
operation 170
phone 170
preserve 170
pur@@ 170
she@@ 170
sites 170
some@@ 170
spur 170
survi@@ 170
wonder 170
27 169
Dutch 169
Ebola 169
ading 169
assumed 169
car 169
cat@@ 169
colleagues 169
concei@@ 169
ective 169
elli@@ 169
entered 169
entrepreneurs 169
evolutionary 169
exam@@ 169
fundament@@ 169
interested 169
la 169
prefer 169
regulated 169
remember 169
remin@@ 169
resort 169
rightly 169
sibly 169
sla@@ 169
smart 169
tained 169
Copenhagen 168
Justice 168
Malaysia 168
accelerate 168
anniversary 168
capture 168
construc@@ 168
ever-@@ 168
exclu@@ 168
extraordinary 168
favorable 168
fueling 168
involvement 168
involving 168
justify 168
maintained 168
manner 168
minds 168
mobility 168
occup@@ 168
representatives 168
secondary 168
short-@@ 168
talent 168
yang 168
5.@@ 167
Ang@@ 167
Liber@@ 167
Shi@@ 167
chains 167
cs 167
ections 167
el-@@ 167
ell@@ 167
enjoy 167
famous 167
longer-term 167
outright 167
policymaking 167
replac@@ 167
threatens 167
trigger 167
unemployed 167
wat@@ 167
1998 166
Bill 166
Musharraf 166
True 166
adap@@ 166
aking 166
ani 166
capital-@@ 166
define 166
ick@@ 166
iling 166
map 166
mil@@ 166
mobili@@ 166
neg@@ 166
od 166
privile@@ 166
rog@@ 166
second-@@ 166
sett@@ 166
sin@@ 166
sou@@ 166
statistics 166
teach@@ 166
tty 166
voted 166
waste 166
Bangladesh 165
Berlin 165
City 165
Goals 165
Hollande 165
UN@@ 165
commit 165
doctors 165
extra@@ 165
impressive 165
ina 165
institu@@ 165
labor-@@ 165
loy@@ 165
partnerships 165
plenty 165
prison 165
protected 165
recru@@ 165
represented 165
responded 165
sensitive 165
tar@@ 165
tool 165
trou@@ 165
vent 165
wish 165
2-@@ 164
Arabs 164
Every 164
Ko@@ 164
She 164
Ta@@ 164
business@@ 164
cells 164
conclu@@ 164
contract 164
don@@ 164
inated 164
involve 164
long@@ 164
mitig@@ 164
neighboring 164
neo-@@ 164
presented 164
repression 164
retain 164
sun@@ 164
val 164
vigor@@ 164
28 163
Others 163
chemical 163
dominance 163
emis@@ 163
expenditure 163
expression 163
fields 163
foundation 163
gam@@ 163
gn 163
informal 163
intervene 163
jud@@ 163
medicine 163
sively 163
wil@@ 163
Fe@@ 162
albeit 162
ant@@ 162
bom@@ 162
combat 162
dan 162
dru@@ 162
dur@@ 162
emer@@ 162
enforcement 162
eradic@@ 162
greatly 162
inefficient 162
inside 162
links 162
lock 162
meaningful 162
modernization 162
patient 162
perception 162
platform 162
regarding 162
sold 162
sum 162
ures 162
wo@@ 162
Cur@@ 161
Moscow 161
Shanghai 161
To@@ 161
adi@@ 161
affir@@ 161
asses 161
assi@@ 161
backing 161
caught 161
characterized 161
claiming 161
devaluation 161
finances 161
ility 161
immun@@ 161
insur@@ 161
minorities 161
oil-@@ 161
openly 161
oppose 161
rational 161
rebalancing 161
removed 161
resilience 161
sensible 161
sight 161
1980s 160
Clearly 160
abuse 160
all-@@ 160
broken 160
dom@@ 160
employers 160
enemies 160
estate 160
estimate 160
fish 160
foster 160
foundations 160
influ@@ 160
kin@@ 160
obe@@ 160
ok 160
older 160
ordin@@ 160
owed 160
real-estate 160
ref@@ 160
reluctant 160
repeated 160
richer 160
risen 160
rooted 160
tradable 160
tum@@ 160
2050 159
75 159
Among 159
English 159
Free 159
Pi@@ 159
Recent 159
acknowledge 159
apart 159
approved 159
avoided 159
believes 159
chain 159
consum@@ 159
content 159
descri@@ 159
euro@@ 159
exists 159
gent 159
hel@@ 159
insufficient 159
lied 159
loan 159
mas@@ 159
partisan 159
predicted 159
projected 159
sen 159
stabilize 159
targeting 159
testing 159
tightening 159
tric@@ 159
ty@@ 159
Blair 158
Col@@ 158
Cyprus 158
Nuclear 158
Robert 158
Southeast 158
Ti@@ 158
abandoned 158
accused 158
acqu@@ 158
affordable 158
apparently 158
catastrophe 158
classi@@ 158
earn 158
electorate 158
ened 158
esp@@ 158
evolution 158
explained 158
extremism 158
granted 158
gue 158
ignored 158
influential 158
kill 158
nineteenth 158
ourselves 158
pass@@ 158
performing 158
prepare 158
red@@ 158
rises 158
shifts 158
slightly 158
tackle 158
urgently 158
volatile 158
wal@@ 158
Senate 157
Should 157
aci@@ 157
actor 157
alls 157
ania 157
are@@ 157
arly 157
atism 157
buil@@ 157
challenging 157
determination 157
distribu@@ 157
identi@@ 157
imply 157
mal@@ 157
optim@@ 157
orders 157
paraly@@ 157
pon@@ 157
poorly 157
provo@@ 157
slower 157
tin@@ 157
vali@@ 157
vation 157
Am@@ 156
Denmark 156
Sustainable 156
acceptable 156
aps 156
crash 156
crip@@ 156
exce@@ 156
feder@@ 156
ign 156
ika 156
internationally 156
ley 156
obviously 156
openness 156
peoples 156
posi@@ 156
ric 156
technoc@@ 156
tens 156
00,000 155
Bashar 155
Chávez 155
Kyoto 155
Pri@@ 155
attempting 155
comparable 155
familiar 155
feeling 155
land@@ 155
liabilities 155
missile 155
ners 155
persistent 155
prolonged 155
prominent 155
residents 155
satis@@ 155
signal 155
trav@@ 155
va 155
weigh@@ 155
ws 155
1991 154
Ara@@ 154
Scotland 154
deri@@ 154
destroyed 154
division 154
donors 154
ene@@ 154
erupted 154
exc@@ 154
friendly 154
fru@@ 154
harmon@@ 154
hur@@ 154
ich 154
importantly 154
low-income 154
politician 154
ports 154
rap@@ 154
requiring 154
roots 154
school@@ 154
slowing 154
strikes 154
tragedy 154
vulnerability 154
Board 153
Conference 153
achievement 153
animals 153
aria 153
batt@@ 153
bles 153
bru@@ 153
cyber 153
dictatorship 153
dre@@ 153
eable 153
earth 153
ere 153
guaranteed 153
im 153
inflationary 153
insist 153
ished 153
iti@@ 153
meetings 153
missing 153
noted 153
orderly 153
quick 153
reductions 153
rival 153
secre@@ 153
severely 153
sity 153
stry 153
ush 153
waiting 153
write 153
&apos; 152
,@@ 152
23 152
Finance 152
Polish 152
Unless 152
agency 152
ar-@@ 152
arm 152
binding 152
blu@@ 152
clean@@ 152
controversial 152
convergence 152
cour@@ 152
demics 152
destructive 152
distor@@ 152
doctrine 152
enemy 152
expl@@ 152
fold 152
ini 152
integr@@ 152
monitoring 152
motivated 152
prevented 152
regul@@ 152
responding 152
sectarian 152
staff 152
th-@@ 152
vit@@ 152
DP 151
Google 151
Keynesian 151
La@@ 151
al-Assad 151
bly 151
communications 151
competing 151
cred@@ 151
delay 151
dened 151
dest 151
dropped 151
expertise 151
ey 151
fill 151
founded 151
gan 151
gged 151
inability 151
journalists 151
lend 151
narrow@@ 151
not@@ 151
pal@@ 151
picture 151
resist 151
scar@@ 151
statements 151
stered 151
stering 151
stric@@ 151
workforce 151
2.5 150
Forum 150
Ho@@ 150
Khamenei 150
Qatar 150
aboli@@ 150
alloc@@ 150
assumption 150
chem@@ 150
clar@@ 150
experiencing 150
imposing 150
outlook 150
portra@@ 150
sters 150
stood 150
tionally 150
town 150
xy 150
yan 150
yen 150
Before 149
CD@@ 149
Convention 149
IS@@ 149
Sp@@ 149
agu@@ 149
anxiety 149
breaking 149
chances 149
communic@@ 149
contributing 149
dangers 149
features 149
fer@@ 149
fulfill 149
insist@@ 149
ji@@ 149
judges 149
lenders 149
lets 149
manipul@@ 149
mounting 149
nation-@@ 149
obj@@ 149
ored 149
rare 149
reconciliation 149
ressing 149
right-wing 149
simp@@ 149
uk@@ 149
unconventional 149
-year 148
19 148
Fatah 148
Harvard 148
Lu@@ 148
White 148
Who 148
absolute 148
accompli@@ 148
begins 148
careful 148
cast 148
compelling 148
constra@@ 148
exporters 148
human-rights 148
minded 148
monopoly 148
pass 148
plying 148
popul@@ 148
popularity 148
shor@@ 148
stan 148
struck 148
sufficiently 148
underestim@@ 148
yal 148
1979 147
1997 147
6.@@ 147
CC 147
EN@@ 147
Jerusalem 147
The@@ 147
Wil@@ 147
alties 147
attitudes 147
awa@@ 147
awareness 147
criteria 147
cum@@ 147
fran@@ 147
gene@@ 147
half-@@ 147
halt 147
hon@@ 147
insol@@ 147
unification 147
vent@@ 147
vering 147
whe@@ 147
HA@@ 146
Hitler 146
Mil@@ 146
Syri@@ 146
Tra@@ 146
U 146
adjust 146
arguing 146
avo@@ 146
cen@@ 146
crops 146
dan@@ 146
dig@@ 146
export@@ 146
imperial 146
intense 146
itors 146
numerous 146
obli@@ 146
ples 146
pressed 146
procedures 146
provin@@ 146
realized 146
rently 146
ro 146
sooner 146
sudden 146
survey 146
ter-@@ 146
za 146
Democracy 145
Pen@@ 145
Research 145
ail 145
connec@@ 145
evident 145
fe 145
foreigners 145
formation 145
gradual 145
holder 145
insi@@ 145
insul@@ 145
lessness 145
mem@@ 145
mitigate 145
pun@@ 145
rage 145
rating 145
retail 145
seeing 145
sem@@ 145
tap@@ 145
wan@@ 145
Millennium 144
Q@@ 144
Ric@@ 144
Tri@@ 144
abilities 144
activists 144
assess 144
atively 144
desirable 144
dness 144
empire 144
enthusias@@ 144
genes 144
greenhouse-gas 144
ills 144
indicate 144
pensions 144
persu@@ 144
ph 144
ranging 144
reinforced 144
reti@@ 144
reversed 144
sexual 144
sures 144
sy@@ 144
trip 144
unit 144
use@@ 144
vention 144
vir@@ 144
Americ@@ 143
Fi@@ 143
Group 143
Hungary 143
King 143
Pu@@ 143
anywhere 143
cally 143
constrained 143
desp@@ 143
disco@@ 143
divisions 143
dominate 143
executives 143
fairly 143
far-@@ 143
genocide 143
hard-@@ 143
innov@@ 143
introduce 143
it-@@ 143
len@@ 143
macro@@ 143
oration 143
pharmaceutical 143
reci@@ 143
release 143
rit@@ 143
rol@@ 143
sing@@ 143
Education 142
align@@ 142
ana 142
arise 142
asking 142
avoiding 142
background 142
cement 142
cep@@ 142
cope 142
false 142
female 142
fit 142
hero@@ 142
indicators 142
ities 142
judgment 142
justified 142
kets 142
memory 142
ols 142
pill@@ 142
radi@@ 142
reject 142
rence 142
significance 142
teen@@ 142
tely 142
thri@@ 142
turing 142
ur 142
virtu@@ 142
Cooperation 141
Ku@@ 141
Os@@ 141
accountable 141
antly 141
bia 141
bility 141
boo@@ 141
excep@@ 141
informed 141
jun@@ 141
ki 141
margin@@ 141
maxim@@ 141
nonetheless 141
periods 141
pling 141
pricing 141
repe@@ 141
sent@@ 141
Ahmadinejad 140
Ann@@ 140
Big 140
CO@@ 140
Chil@@ 140
Constitution 140
Indians 140
Three 140
West@@ 140
analysts 140
bomb 140
classes 140
colon@@ 140
considerations 140
cro@@ 140
ed-@@ 140
enhanced 140
ets 140
evil 140
fis@@ 140
inflic@@ 140
ising 140
ler 140
mortality 140
peri@@ 140
protectionism 140
puts 140
quest 140
reputation 140
rou@@ 140
short@@ 140
tail 140
territories 140
Bre@@ 139
Go@@ 139
Gre@@ 139
Mad@@ 139
Stalin 139
ala 139
ambigu@@ 139
ancient 139
cir@@ 139
computers 139
conveni@@ 139
didn 139
envi@@ 139
fifth 139
formul@@ 139
ion 139
labor-market 139
mix 139
murder 139
nic@@ 139
persuade 139
port@@ 139
prote@@ 139
provisions 139
regular 139
resemb@@ 139
sky 139
underp@@ 139
valued 139
1950 138
Bernanke 138
Chairman 138
Del@@ 138
FS@@ 138
accurate 138
adoption 138
challenged 138
cheaper 138
code 138
contemporary 138
deny 138
design@@ 138
discovered 138
giant 138
lea@@ 138
lement 138
lined 138
lowing 138
mits 138
mother 138
plun@@ 138
roll 138
seeks 138
shadow 138
stimul@@ 138
tons 138
und@@ 138
underway 138
wel@@ 138
10@@ 137
Ben@@ 137
Every@@ 137
Ji@@ 137
Mexican 137
actively 137
adopting 137
advocates 137
alistic 137
announcement 137
campaigns 137
coherent 137
collabor@@ 137
couple 137
critici@@ 137
eager 137
free-trade 137
free@@ 137
fundamentals 137
fusion 137
humili@@ 137
love 137
lowest 137
machines 137
minu@@ 137
mobilize 137
oth@@ 137
reinforce 137
restoring 137
revive 137
saved 137
seats 137
supports 137
throw 137
treaties 137
vaccines 137
western 137
ES@@ 136
Each 136
Inte@@ 136
NG@@ 136
Where 136
ack 136
alongside 136
bel@@ 136
dilemma 136
exceed 136
fought 136
greenhouse 136
hour 136
interpretation 136
iring 136
itting 136
oul@@ 136
puni@@ 136
rants 136
respectively 136
shifted 136
slowed 136
spar@@ 136
supervision 136
won@@ 136
Government 135
abuses 135
achievements 135
alliances 135
allocation 135
autonomy 135
concentr@@ 135
conclude 135
conven@@ 135
distant 135
exposure 135
feed 135
gradu@@ 135
integrate 135
judicial 135
lands 135
nutrition 135
origin@@ 135
public-sector 135
purposes 135
pursuit 135
q@@ 135
shore 135
sid@@ 135
tter 135
typical 135
unstable 135
vaccine 135
west 135
1-@@ 134
Army 134
Earth 134
Labour 134
N 134
Sm@@ 134
activi@@ 134
ame 134
attempted 134
balances 134
bridge 134
chose 134
concentrated 134
condem@@ 134
constant 134
convince 134
difficulty 134
forecast 134
geograph@@ 134
jeopardi@@ 134
likelihood 134
marriage 134
med@@ 134
mit@@ 134
negotiation 134
note 134
optimistic 134
pho@@ 134
ratios 134
Back 133
Direc@@ 133
Mahmoud 133
Norway 133
ared 133
aspirations 133
assass@@ 133
backs 133
committee 133
contribu@@ 133
deserve 133
dignity 133
disasters 133
discre@@ 133
emplo@@ 133
enforce 133
explains 133
fies 133
foremost 133
fossil-fuel 133
fri@@ 133
gas@@ 133
hypo@@ 133
implic@@ 133
introduction 133
jum@@ 133
main@@ 133
offic@@ 133
ounding 133
owned 133
plus 133
populism 133
predictable 133
principal 133
prior 133
revol@@ 133
slu@@ 133
solid 133
upcoming 133
volume 133
As@@ 132
Berlusconi 132
Bi@@ 132
Frank@@ 132
Greenspan 132
Law 132
TPP 132
acle 132
acqui@@ 132
agre@@ 132
civili@@ 132
confident 132
considering 132
deepening 132
equilibrium 132
facto 132
foun@@ 132
happiness 132
high-income 132
ign@@ 132
ken 132
lor@@ 132
meas@@ 132
mili@@ 132
ould 132
plays 132
resi@@ 132
sor@@ 132
stone 132
taining 132
tension 132
understandable 132
uro 132
— 132
15@@ 131
Center 131
MI@@ 131
Mc@@ 131
Romney 131
TI@@ 131
V 131
adding 131
cer 131
channels 131
common@@ 131
consi@@ 131
deliber@@ 131
dow@@ 131
feasible 131
g-@@ 131
gments 131
hyper@@ 131
integrity 131
itable 131
manife@@ 131
market-@@ 131
oting 131
pragmatic 131
problematic 131
settlements 131
stret@@ 131
thir@@ 131
vicious 131
wall 131
worsen@@ 131
7-@@ 130
Lisbon 130
Min@@ 130
Na@@ 130
attitude 130
beneficial 130
bureaucracy 130
circle 130
comfortable 130
complic@@ 130
creditor 130
demo@@ 130
disorder 130
emphasi@@ 130
followers 130
follows 130
fresh 130
generous 130
heav@@ 130
houses 130
iness 130
inten@@ 130
judge 130
ka 130
lat@@ 130
missiles 130
of-@@ 130
prud@@ 130
recognizing 130
relying 130
trained 130
vely 130
weapon 130
yers 130
1,000 129
4-@@ 129
BERKELEY 129
Cu@@ 129
Medic@@ 129
Mit@@ 129
Park 129
amoun@@ 129
commodities 129
dead@@ 129
doubts 129
fil@@ 129
fired 129
flawed 129
fur@@ 129
grand 129
ints 129
isolated 129
joining 129
lers 129
logi@@ 129
occa@@ 129
pending 129
quali@@ 129
refuse 129
robo@@ 129
route 129
stop@@ 129
street 129
toxic 129
tran@@ 129
waves 129
‘ 129
Fo@@ 128
Public 128
advis@@ 128
agon@@ 128
collaboration 128
consideration 128
demanded 128
dispos@@ 128
ern@@ 128
explicit 128
haz@@ 128
implicit 128
incre@@ 128
legally 128
legisl@@ 128
nam@@ 128
nets 128
nor@@ 128
normali@@ 128
ops 128
pil@@ 128
plur@@ 128
representative 128
rigi@@ 128
tively 128
traditionally 128
yes 128
0 127
1992 127
26 127
3-@@ 127
65 127
Emer@@ 127
Irish 127
agg@@ 127
charged 127
cho@@ 127
chosen 127
communication 127
components 127
dam@@ 127
discuss 127
drew 127
ements 127
entry 127
fishing 127
fix 127
isol@@ 127
manag@@ 127
manipulation 127
obstacle 127
oming 127
panic 127
pes@@ 127
phones 127
produces 127
realities 127
reduces 127
shar@@ 127
shoc@@ 127
striking 127
stun@@ 127
trap 127
val@@ 127
vity 127
water@@ 127
29 126
Against 126
DNA 126
Jinping 126
Ky@@ 126
Lib@@ 126
Mao 126
Over@@ 126
PRINCETON 126
Several 126
Stu@@ 126
Summit 126
TV 126
Year 126
ams 126
berg 126
cost-@@ 126
declines 126
details 126
ecu@@ 126
employed 126
engine 126
extensive 126
famously 126
farm 126
flight 126
grand@@ 126
marginal 126
mone@@ 126
ple 126
populists 126
refusal 126
rer 126
rid@@ 126
shortages 126
student 126
suit 126
teachers 126
tioning 126
tives 126
EU-@@ 125
Fac@@ 125
Francis 125
Ham@@ 125
High 125
Pop@@ 125
accommo@@ 125
accounted 125
add@@ 125
adjustments 125
ales 125
ample 125
arrangement 125
command 125
desperate 125
ener@@ 125
energy-@@ 125
government-@@ 125
inspired 125
inter-@@ 125
involves 125
journ@@ 125
kov@@ 125
lag@@ 125
lowering 125
os@@ 125
persist@@ 125
pos@@ 125
propos@@ 125
rejection 125
repu@@ 125
ron 125
sale 125
schemes 125
shortage 125
steady 125
stream 125
then-@@ 125
treatments 125
ular 125
virus 125
weaknesses 125
writing 125
yer 125
Are 124
Hillary 124
Hussein 124
NE@@ 124
Sec@@ 124
alling 124
anim@@ 124
bolster 124
cataly@@ 124
confronted 124
depreci@@ 124
disastrous 124
driver 124
dynamics 124
element 124
experiences 124
explicitly 124
eye 124
fellow 124
gaps 124
ghter 124
governed 124
guar@@ 124
human@@ 124
innocent 124
lified 124
night 124
observed 124
resolving 124
rought 124
row 124
site 124
steadily 124
unwilling 124
vency 124
white 124
worker 124
1995 123
Alliance 123
Brothers 123
Lehman 123
NPT 123
acknowledged 123
acute 123
ail@@ 123
analo@@ 123
appreciate 123
archy 123
catastrophic 123
definition 123
dom 123
ech@@ 123
exerci@@ 123
foreseeable 123
hope@@ 123
insecurity 123
legislative 123
meltdown 123
modi@@ 123
rem@@ 123
revolutions 123
sav@@ 123
somehow 123
sub-@@ 123
tion-@@ 123
under-@@ 123
Austria 122
Ber@@ 122
Cap@@ 122
Def@@ 122
Having 122
IR@@ 122
Industrial 122
Islam@@ 122
abor@@ 122
accumul@@ 122
aspects 122
bat@@ 122
bian 122
center-@@ 122
comparison 122
confronting 122
constitute 122
contagion 122
doubled 122
educ@@ 122
fall@@ 122
hundred 122
ides 122
ior 122
laun@@ 122
locked 122
orious 122
perform 122
pha@@ 122
pledged 122
powered 122
rein 122
stakes 122
stran@@ 122
succ@@ 122
suicide 122
supervis@@ 122
tari@@ 122
tis@@ 122
tization 122
Ethiopia 121
Green 121
Nazi 121
Sil@@ 121
Woods 121
acceptance 121
borne 121
cau@@ 121
convincing 121
coordin@@ 121
criticized 121
dark 121
delivery 121
diplomats 121
donor 121
enlargement 121
feature 121
ferred 121
hedge 121
hurt 121
incur@@ 121
intern@@ 121
ko 121
mer 121
monetary-policy 121
orthodo@@ 121
peac@@ 121
ranks 121
recognizes 121
regulate 121
sex 121
skill 121
suring 121
tedly 121
tends 121
therap@@ 121
tun@@ 121
ums 121
un 121
unified 121
unilater@@ 121
visited 121
worl@@ 121
1945 120
Bretton 120
Deng 120
Is@@ 120
Ob@@ 120
Power 120
Represent@@ 120
Sun@@ 120
aked 120
announ@@ 120
arity 120
autom@@ 120
categ@@ 120
commun@@ 120
denied 120
earned 120
edge 120
eliminated 120
enterprise 120
fortun@@ 120
lac@@ 120
legitim@@ 120
mul@@ 120
propaganda 120
recover@@ 120
rich@@ 120
scores 120
swa@@ 120
threshold 120
unilateral 120
watch 120
year-old 120
Bas@@ 119
Northern 119
Priv@@ 119
Sin@@ 119
Switzerland 119
Whatever 119
affecting 119
ases 119
bid 119
career 119
cell 119
conditional 119
cultures 119
defici@@ 119
dies 119
discussed 119
eland 119
enacted 119
enses 119
fat@@ 119
forests 119
gers 119
illustr@@ 119
intermedi@@ 119
irrelevant 119
ise 119
jurisdic@@ 119
life@@ 119
lows 119
machine 119
nu@@ 119
ome@@ 119
preci@@ 119
premi@@ 119
ratings 119
regularly 119
shaped 119
spiral 119
thetic 119
time@@ 119
uro@@ 119
Czech 118
Gates 118
Mario 118
Presid@@ 118
Somalia 118
Worse 118
absorb 118
accelerated 118
ada 118
blow 118
colonial 118
commod@@ 118
competitors 118
concer@@ 118
desperately 118
differently 118
dioxide 118
dynamism 118
elect 118
et@@ 118
flou@@ 118
grave 118
half-century 118
impor@@ 118
induced 118
ject 118
livelihoods 118
lob@@ 118
marks 118
mentary 118
minimize 118
mutually 118
olutions 118
plumme@@ 118
rat@@ 118
repres@@ 118
resilient 118
rown 118
safeguar@@ 118
safer 118
sch@@ 118
selection 118
sia 118
situations 118
stems 118
straightforward 118
talking 118
tful 118
transportation 118
troubled 118
Ali 117
CE@@ 117
Ph@@ 117
abo@@ 117
arsen@@ 117
arti@@ 117
bills 117
camp 117
citizen 117
commer@@ 117
commis@@ 117
constructive 117
cooperate 117
crop 117
emphasized 117
ensive 117
exha@@ 117
express 117
film 117
histori@@ 117
historically 117
holdings 117
ick 117
implying 117
initiated 117
investor 117
lower-@@ 117
nowhere 117
ocean 117
optimism 117
partial 117
platforms 117
pollu@@ 117
post 117
quot@@ 117
raw 117
remo@@ 117
sees 117
shaping 117
sovereign-debt 117
trade-@@ 117
ultra-@@ 117
undertake 117
wr@@ 117
BO@@ 116
Friedman 116
SD@@ 116
SE@@ 116
SOEs 116
Tur@@ 116
accelerating 116
aks 116
bir@@ 116
campa@@ 116
clinical 116
credit@@ 116
deal@@ 116
derivatives 116
expor@@ 116
finds 116
health@@ 116
honor 116
hood 116
hospitals 116
hostile 116
ind 116
inspir@@ 116
kes@@ 116
magnitude 116
margin 116
middle-class 116
neighbor 116
or-@@ 116
ouldn 116
ounced 116
preferred 116
prevention 116
reflecting 116
shel@@ 116
speaking 116
tactics 116
tendency 116
tsunami 116
vacc@@ 116
waters 116
Algeria 115
Chin@@ 115
Cy@@ 115
Facebook 115
Front 115
God 115
Governor 115
ISIS 115
Invest@@ 115
Ju@@ 115
Kurds 115
Mac@@ 115
Naz@@ 115
accession 115
accumulation 115
anticipated 115
appointed 115
bi 115
cabinet 115
carbon-@@ 115
ceiling 115
chec@@ 115
deflationary 115
desi@@ 115
destabilizing 115
eigh@@ 115
forec@@ 115
gor@@ 115
govern 115
hoped 115
hot 115
implied 115
ll 115
naturally 115
obtain 115
pledge 115
receiving 115
remote 115
remove 115
rers 115
revival 115
richest 115
settle 115
sey 115
sour@@ 115
specul@@ 115
strongest 115
surface 115
tally 115
tarian 115
unrest 115
zones 115
1,@@ 114
Ah@@ 114
Civi@@ 114
Le 114
Morocco 114
Sup@@ 114
absor@@ 114
abund@@ 114
acquire 114
administrative 114
amin 114
anticip@@ 114
asset-@@ 114
ate-@@ 114
atro@@ 114
bet 114
bit@@ 114
closing 114
collateral 114
compatible 114
declaration 114
entation 114
every@@ 114
exploit 114
freely 114
fun@@ 114
gare@@ 114
holders 114
indu@@ 114
intentions 114
islands 114
lift 114
logists 114
namely 114
nar@@ 114
persist 114
prevailing 114
recipi@@ 114
relies 114
soared 114
speculative 114
tele@@ 114
unfair 114
versus 114
wellbeing 114
zero-@@ 114
ón 114
DELHI 113
Do@@ 113
Draghi 113
Economics 113
Govern@@ 113
League 113
Lebanese 113
Oil 113
alive 113
backlash 113
capitalist 113
conce@@ 113
dat@@ 113
delivering 113
devoted 113
dire 113
discoura@@ 113
dr@@ 113
enjoyed 113
enko 113
error 113
facilit@@ 113
fine 113
globalized 113
guil@@ 113
initi@@ 113
interesting 113
jour@@ 113
judiciary 113
liz@@ 113
male 113
manufac@@ 113
ousness 113
parity 113
pre-crisis 113
predecessor 113
restored 113
returning 113
rig@@ 113
starts 113
sympa@@ 113
temp@@ 113
tural 113
urbanization 113
yiel@@ 113
7.@@ 112
Cro@@ 112
FTA 112
Following 112
IP@@ 112
Ocean 112
Otherwise 112
Peru 112
Protocol 112
Reagan 112
Roma 112
Slo@@ 112
Times 112
ap 112
appearance 112
brin@@ 112
commit@@ 112
competence 112
concentration 112
contraction 112
describe 112
ei@@ 112
eliminating 112
embraced 112
enn@@ 112
eping 112
exist@@ 112
fla@@ 112
fraction 112
gross 112
hydro@@ 112
immense 112
liberty 112
massac@@ 112
materi@@ 112
physici@@ 112
providers 112
reck@@ 112
sim@@ 112
small@@ 112
successes 112
terly 112
th-century 112
tough@@ 112
tow@@ 112
underpinned 112
1970s 111
199@@ 111
400 111
Foundation 111
G-8 111
Iraqis 111
Labor 111
Lar@@ 111
OM@@ 111
Prize 111
Sum@@ 111
Sur@@ 111
Whereas 111
advi@@ 111
advocate 111
alty 111
assumptions 111
asylum 111
behavi@@ 111
bought 111
canc@@ 111
casu@@ 111
ceas@@ 111
character 111
character@@ 111
collap@@ 111
complexity 111
concessions 111
contained 111
drin@@ 111
earthquake 111
electric 111
ese 111
essed 111
exclusively 111
expansionary 111
favor@@ 111
fish@@ 111
football 111
four@@ 111
frequent 111
friend 111
hear 111
heat 111
impris@@ 111
ith 111
location 111
militar@@ 111
mood 111
neighborhood 111
pression 111
privatization 111
recapit@@ 111
recorded 111
rival@@ 111
tec@@ 111
tible 111
worries 111
Abenomics 110
Cup 110
Du@@ 110
High@@ 110
NP 110
PA@@ 110
Road 110
SDGs 110
TB 110
array 110
assuming 110
aug@@ 110
balance-sheet 110
blamed 110
blind 110
breakthrough 110
cli@@ 110
constantly 110
declar@@ 110
deemed 110
degrees 110
deleveraging 110
destabili@@ 110
dless 110
eco@@ 110
emotional 110
engaging 110
escap@@ 110
fulfilling 110
functions 110
governor 110
han 110
m-@@ 110
malaise 110
multinational 110
munici@@ 110
nee@@ 110
origin 110
player 110
poc@@ 110
pride 110
prisoners 110
puty 110
rebuild 110
render 110
resistant 110
seize 110
stabilizing 110
swit@@ 110
thers 110
tiv@@ 110
tory 110
tribal 110
ttom@@ 110
ual 110
ue 110
unacceptable 110
unlea@@ 110
ural 110
younger 110
Constitutional 109
Dom@@ 109
Globalization 109
Kenne@@ 109
Shinzo 109
WTO 109
Xia@@ 109
adjusted 109
ambition 109
animal 109
arbitr@@ 109
buff@@ 109
buildings 109
captured 109
clin@@ 109
cohesion 109
condi@@ 109
consent 109
deci@@ 109
defeated 109
diagnosis 109
dio@@ 109
dol@@ 109
draft 109
emphasize 109
ert 109
existential 109
experiment 109
indicates 109
ineffective 109
outs 109
protesters 109
pull 109
rav@@ 109
regain 109
software 109
solved 109
sphere 109
stuck 109
surrounding 109
tainment 109
temperatures 109
terrible 109
tin 109
upward 109
worrying 109
1967 108
Association 108
Bosnia 108
Environ@@ 108
Food 108
Islands 108
Je@@ 108
Lead@@ 108
Sub-Saharan 108
Thatcher 108
Vol@@ 108
affects 108
age-@@ 108
antibiotics 108
availability 108
bargain 108
channel 108
connection 108
covered 108
deleg@@ 108
denominated 108
efully 108
engine@@ 108
entering 108
exten@@ 108
factory 108
fashion 108
glo@@ 108
hab@@ 108
hike 108
infectious 108
intention 108
landing 108
laureate 108
luc@@ 108
outbreak 108
precedent 108
rain 108
reser@@ 108
resid@@ 108
rul@@ 108
sanc@@ 108
seat 108
sh-@@ 108
shortcomings 108
signals 108
sit 108
socially 108
tiveness 108
trajectory 108
trib@@ 108
Arafat 107
Krugman 107
MADRID 107
Neither 107
Nig@@ 107
Non-@@ 107
Wh@@ 107
admit 107
aircraft 107
alien@@ 107
angry 107
answers 107
arrested 107
diminished 107
enables 107
endor@@ 107
enjo@@ 107
ew 107
extremist 107
fir@@ 107
founding 107
holi@@ 107
hou 107
images 107
interven@@ 107
itely 107
licen@@ 107
maneu@@ 107
mess@@ 107
mired 107
mistak@@ 107
nav@@ 107
overseas 107
pessi@@ 107
reasonably 107
satelli@@ 107
shot 107
specifically 107
split 107
tariffs 107
tedness 107
telling 107
ticles 107
tiny 107
tism 107
tourism 107
train 107
transform@@ 107
unexpected 107
worthy 107
..@@ 106
2,000 106
AI@@ 106
AIIB 106
Above 106
Ben 106
CEO 106
Christians 106
Churchill 106
Crimea 106
Cs 106
Doing 106
Economy 106
Kerry 106
Mili@@ 106
adults 106
aggression 106
alled 106
alleged 106
appoin@@ 106
attend 106
author@@ 106
bailouts 106
card 106
champ@@ 106
civilization 106
decent 106
dy@@ 106
elations 106
enever 106
exacerbated 106
fairness 106
fluctu@@ 106
gy 106
hegemony 106
lawyers 106
mar 106
meantime 106
mers 106
negl@@ 106
poin@@ 106
pot@@ 106
pound 106
professionals 106
provoc@@ 106
prudential 106
sake 106
sending 106
sym@@ 106
tering 106
the-@@ 106
transatlantic 106
vested 106
Bhu@@ 105
Crisis 105
Doha 105
Jean-@@ 105
OR@@ 105
Str@@ 105
Within 105
aca@@ 105
anthro@@ 105
atically 105
biodiversity 105
brid@@ 105
bureaucratic 105
carrying 105
clim@@ 105
co 105
completed 105
demonstrations 105
dish 105
distinct 105
distributed 105
docum@@ 105
drawing 105
enduring 105
favored 105
forecasts 105
harsh 105
headlines 105
incorpor@@ 105
indebted 105
lacking 105
mas 105
medium 105
mel@@ 105
mind@@ 105
ministry 105
missions 105
movi@@ 105
ni 105
obligation 105
oni@@ 105
ores 105
osity 105
ought 105
pes 105
piece 105
poll 105
prescrip@@ 105
prog@@ 105
psycho@@ 105
reason@@ 105
reveal 105
seas@@ 105
stor@@ 105
temperature 105
temporarily 105
tex@@ 105
ticul@@ 105
traffic@@ 105
uranium 105
veto 105
victim 105
wife 105
working-@@ 105
+ 104
5,000 104
Day 104
FDI 104
Greeks 104
Nicolas 104
Sou@@ 104
Sri 104
Ultimately 104
WWII 104
ades 104
akh@@ 104
altogether 104
anch@@ 104
anemic 104
asym@@ 104
aur@@ 104
bail@@ 104
bench@@ 104
bloc 104
datory 104
devices 104
downs 104
duty 104
equi@@ 104
expan@@ 104
expert 104
extr@@ 104
guard 104
higher-@@ 104
highlights 104
indicated 104
instrument 104
insula 104
laid 104
low-cost 104
marine 104
newspaper 104
passing 104
pays 104
permit 104
philosophy 104
profitable 104
reinforcing 104
representation 104
rough 104
sheet 104
shrinking 104
smar@@ 104
solely 104
tolerance 104
wed 104
winners 104
Already 103
Fiscal 103
Israeli-Palestinian 103
Kurdish 103
Making 103
Market 103
Out@@ 103
Sometimes 103
Women 103
accepting 103
applies 103
appreci@@ 103
arguably 103
article 103
artificial 103
ation-@@ 103
classic 103
conflic@@ 103
din@@ 103
disintegration 103
doc@@ 103
evolved 103
frameworks 103
gic 103
high-quality 103
insurgency 103
lation 103
located 103
midst 103
minim@@ 103
plausible 103
preferences 103
requirement 103
soil 103
struggles 103
substitu@@ 103
tains 103
transl@@ 103
voices 103
1.3 102
AL@@ 102
Add 102
Bun@@ 102
François 102
History 102
Lee 102
NGOs 102
Sunnis 102
Tibet 102
ado@@ 102
advan@@ 102
appealing 102
architecture 102
arre@@ 102
aspect 102
associ@@ 102
biology 102
crisis-@@ 102
damaged 102
defaults 102
defending 102
deployed 102
disman@@ 102
drove 102
enrichment 102
entails 102
feared 102
financially 102
frac@@ 102
grows 102
habit@@ 102
illness 102
ired 102
lements 102
leng@@ 102
liability 102
minimal 102
ny 102
occurring 102
parallel 102
posing 102
preparing 102
pt 102
purely 102
racy 102
reading 102
rebels 102
ri 102
safeguard 102
settled 102
shut 102
sional 102
speculation 102
tac@@ 102
teams 102
text 102
theore@@ 102
tial 102
tments 102
ult 102
withdraw 102
-of-@@ 101
Belgium 101
Cairo 101
Economists 101
Few 101
Fourth 101
Her@@ 101
Hu 101
Pol@@ 101
Protec@@ 101
SDR 101
Tw@@ 101
Ukrainian 101
accident 101
adequately 101
alter@@ 101
anti-Sem@@ 101
arrest 101
bias 101
bli@@ 101
bloody 101
camps 101
care@@ 101
centri@@ 101
compe@@ 101
complac@@ 101
cosmo@@ 101
cr@@ 101
dates 101
dic 101
dismis@@ 101
ent-@@ 101
factories 101
for-@@ 101
foreign-@@ 101
fro@@ 101
frustration 101
maritime 101
mixed 101
post-war 101
predecessors 101
rase 101
shale 101
shall 101
sports 101
spreading 101
storm 101
strict 101
tomorrow 101
tragic 101
ul 101
value-added 101
widening 101
withdraw@@ 101
1993 100
1994 100
BERLIN 100
Community 100
EA 100
Em@@ 100
Richard 100
Roosevelt 100
ani@@ 100
association 100
bargaining 100
bers 100
breaks 100
broke 100
bun@@ 100
cold 100
connections 100
declare 100
depos@@ 100
depri@@ 100
detailed 100
distinction 100
dysfunctional 100
elu@@ 100
exagger@@ 100
excessively 100
fications 100
findings 100
focuses 100
hammad 100
i-@@ 100
ideo@@ 100
immigrant 100
indefin@@ 100
issuing 100
life-@@ 100
lin 100
mali@@ 100
mes 100
monitor 100
outra@@ 100
pact 100
pool 100
rej@@ 100
rela@@ 100
reporting 100
rivals 100
roo@@ 100
side@@ 100
stemming 100
stick 100
strate@@ 100
suspicion 100
symptoms 100
thor@@ 100
thousand 100
unknown 100
violations 100
voluntary 100
wood 100
zz@@ 100
150 99
Bolivia 99
Business 99
Ci@@ 99
EM@@ 99
Empire 99
Freedom 99
Next 99
Office 99
Sharon 99
Swe@@ 99
Thaksin 99
accur@@ 99
ade@@ 99
agents 99
aker 99
ao 99
ara 99
attacked 99
automatically 99
barrel 99
blow@@ 99
bureaucrats 99
condemned 99
courage 99
cyber@@ 99
defining 99
deli@@ 99
deple@@ 99
destroying 99
disarmament 99
discourse 99
distric@@ 99
epidemic 99
equipped 99
fighters 99
gro@@ 99
heigh@@ 99
lender 99
losers 99
missed 99
notable 99
notic@@ 99
occurs 99
officers 99
ore@@ 99
overwhelmingly 99
protectionist 99
province 99
rid 99
stages 99
sty@@ 99
succe@@ 99
take@@ 99
thre@@ 99
til@@ 99
tobacco 99
toll 99
torture 99
vac@@ 99
vig@@ 99
xing 99
zy 99
100,000 98
13@@ 98
2008-2009 98
Sino-@@ 98
Vic@@ 98
allocated 98
bic 98
blocked 98
carries 98
compensate 98
confined 98
confirmed 98
cultiv@@ 98
dau@@ 98
demic 98
depressed 98
determin@@ 98
dimension 98
distance 98
distinguish 98
dity 98
ely 98
essive 98
ffe@@ 98
fically 98
filled 98
flaws 98
formally 98
horri@@ 98
ific@@ 98
impression 98
intim@@ 98
mal 98
medicines 98
militants 98
mothers 98
nutri@@ 98
offs 98
postwar 98
prohib@@ 98
proof 98
proud 98
psychological 98
punishment 98
recommendations 98
recovered 98
respected 98
ried 98
sacrific@@ 98
sca@@ 98
shortfall 98
slog@@ 98
steel 98
stre@@ 98
tempted 98
thered 98
tist 98
tom@@ 98
traders 98
valu@@ 98
wealth@@ 98
welcomed 98
¥ 98
AK@@ 97
Article 97
Commun@@ 97
Does 97
FOR@@ 97
Institu@@ 97
OS@@ 97
PL@@ 97
Pact 97
Sci@@ 97
Science 97
Stan@@ 97
TE@@ 97
advancing 97
bbed 97
behave 97
characteristics 97
choosing 97
collection 97
connect 97
cooperative 97
cycles 97
dge 97
ecosystems 97
entive 97
excell@@ 97
extending 97
fire@@ 97
firmly 97
forest 97
gency 97
generals 97
growth-@@ 97
guidance 97
justification 97
median 97
officially 97
olution 97
ough 97
pleas@@ 97
portfolio 97
prevail 97
qualified 97
reversal 97
sacrifice 97
securing 97
solving 97
ste 97
surprised 97
tied 97
traum@@ 97
unite 97
upgra@@ 97
uphold 97
ze@@ 97
0th 96
Africans 96
Apple 96
Brazilian 96
Catholic 96
Chech@@ 96
Micro@@ 96
Mis@@ 96
Recession 96
W 96
acknowled@@ 96
adhe@@ 96
arian 96
benefiting 96
bondholders 96
bust 96
certainty 96
controlling 96
cus@@ 96
deepen 96
enders 96
engineers 96
entity 96
entrenched 96
exporting 96
facility 96
forever 96
ful@@ 96
intent 96
led@@ 96
logies 96
maximize 96
migrant 96
named 96
notes 96
observ@@ 96
ority 96
oversight 96
performed 96
pione@@ 96
precise 96
pris@@ 96
promotion 96
protracted 96
resur@@ 96
safe@@ 96
single-@@ 96
sole 96
stagn@@ 96
suggesting 96
tant 96
ugg@@ 96
unpredictable 96
well-being 96
ñ@@ 96
1996 95
BRUSSELS 95
Econom@@ 95
Finland 95
Iranians 95
Jong-@@ 95
Ki@@ 95
Ps 95
School 95
Square 95
Techno@@ 95
Tony 95
adaptation 95
aliz@@ 95
ano@@ 95
attracted 95
biological 95
burdens 95
burst 95
circ@@ 95
creativity 95
crude 95
decre@@ 95
democratically 95
diminishing 95
disruption 95
dying 95
embedded 95
encing 95
ffici@@ 95
forget 95
gol@@ 95
guer@@ 95
ill-@@ 95
illed 95
impede 95
indispensable 95
long-run 95
looming 95
lux@@ 95
ly-@@ 95
mp 95
normally 95
oping 95
pipeline 95
post-crisis 95
prevailed 95
professor 95
quar@@ 95
roles 95
scarce 95
sco@@ 95
siveness 95
skepticism 95
subj@@ 95
tably 95
trum@@ 95
undermines 95
units 95
whereby 95
Ban 94
Do 94
My@@ 94
Secretary-General 94
Simply 94
Uni@@ 94
atri@@ 94
attac@@ 94
belong@@ 94
climate-change 94
countless 94
degradation 94
disparities 94
downside 94
economic-@@ 94
eg@@ 94
fam@@ 94
foods 94
harmful 94
highlighted 94
ily 94
industrialization 94
intellectuals 94
medium-term 94
mism 94
opping 94
opposing 94
printing 94
repay 94
run-up 94
sof@@ 94
stabilization 94
stagnant 94
suffers 94
superpower 94
sy 94
two-state 94
vacuum 94
vis-à-vis 94
warfare 94
00-@@ 93
1973 93
2017 93
AM@@ 93
Alex@@ 93
Bur@@ 93
Dar@@ 93
Initiative 93
OPEC 93
PBOC 93
Rus@@ 93
Strategy 93
Web 93
accord 93
ador 93
ailed 93
apar@@ 93
application 93
assumes 93
automob@@ 93
borrowed 93
catch 93
compliance 93
congressional 93
constitutes 93
crac@@ 93
deduc@@ 93
delayed 93
diabetes 93
documented 93
dul@@ 93
emul@@ 93
endorsed 93
entitled 93
eventual 93
expectancy 93
ferring 93
forge 93
gases 93
govern@@ 93
hostility 93
identities 93
indication 93
iny 93
jihadi@@ 93
kilometers 93
luck 93
matic 93
militias 93
monopoli@@ 93
novel 93
offensive 93
omed 93
oral 93
oud 93
packages 93
paradox 93
perceptions 93
puzz@@ 93
rail@@ 93
rant 93
records 93
recur@@ 93
refra@@ 93
rents 93
reward 93
rio@@ 93
skeptics 93
spectacular 93
swi@@ 93
tier 93
tition 93
transmission 93
transnational 93
vable 93
villages 93
vor@@ 93
yn@@ 93
yo 93
Bri@@ 92
Cambodia 92
Corporation 92
Equ@@ 92
Gü@@ 92
HI@@ 92
Koreans 92
Pen 92
Report 92
Singh 92
Special 92
Trans-Pacific 92
Valley 92
ached 92
alter 92
arrived 92
automatic 92
bombing 92
boundaries 92
bulk 92
check 92
cit 92
coast 92
comparative 92
conservation 92
dedic@@ 92
efficiently 92
equities 92
eries 92
exacerbate 92
excluded 92
ext@@ 92
far@@ 92
fulf@@ 92
gically 92
handed 92
imbalance 92
inations 92
intelli@@ 92
intu@@ 92
knowing 92
landscape 92
lli@@ 92
mathemati@@ 92
ordered 92
overha@@ 92
pac@@ 92
premium 92
prohibi@@ 92
promoted 92
racial 92
respective 92
sle@@ 92
spi@@ 92
spurred 92
subjects 92
supply-side 92
tide 92
tig@@ 92
traditions 92
translate 92
treating 92
turbul@@ 92
turn@@ 92
uniqu@@ 92
volun@@ 92
weigh 92
AG@@ 91
Asia-Pacific 91
Chief 91
Infrastructure 91
Lanka 91
Pr@@ 91
Program 91
TY 91
Tay@@ 91
War@@ 91
afflic@@ 91
alarming 91
applications 91
appro@@ 91
arities 91
b-@@ 91
bearing 91
chairman 91
chann@@ 91
childhood 91
commission 91
confron@@ 91
criminals 91
debtors 91
demise 91
demonstrates 91
deployment 91
discipl@@ 91
dozen 91
dozens 91
elderly 91
elev@@ 91
elt 91
ensu@@ 91
enter@@ 91
eption 91
euro-@@ 91
fai@@ 91
forming 91
fortunately 91
free-market 91
graduates 91
hidden 91
hospital 91
ians 91
incap@@ 91
incomplete 91
kings 91
lap@@ 91
letter 91
oth 91
public-health 91
rally 91
recor@@ 91
relent@@ 91
religi@@ 91
rement 91
request 91
scholars 91
scientist 91
spur@@ 91
ti 91
tice 91
transcen@@ 91
upper 91
window 91
winds 91
8.@@ 90
85 90
Bor@@ 90
Charles 90
Conservative 90
DPJ 90
Ear@@ 90
Fif@@ 90
Gor@@ 90
Her 90
James 90
Lea@@ 90
Ronald 90
Rouhani 90
Saudis 90
Suc@@ 90
Together 90
Wat@@ 90
acquired 90
ads 90
assault 90
beat 90
big@@ 90
college 90
commentators 90
dela@@ 90
devast@@ 90
display 90
disruptive 90
double-@@ 90
fier@@ 90
flation 90
hire 90
iles 90
ingu@@ 90
inning 90
kly 90
lev@@ 90
lifted 90
lusion 90
medium-size 90
odds 90
ological 90
onal 90
onia 90
ouse 90
perf@@ 90
placing 90
prob@@ 90
profile 90
relation 90
relied 90
restra@@ 90
spoke 90
stations 90
substitute 90
sustaining 90
traffic 90
tremendous 90
triumph 90
unanim@@ 90
utili@@ 90
vel 90
village 90
watching 90
Aff@@ 89
Christ@@ 89
Comm@@ 89
Gi@@ 89
Holocaust 89
Medvedev 89
Nixon 89
Policymakers 89
Poor 89
Time 89
accordingly 89
ami 89
ange@@ 89
ard@@ 89
ato@@ 89
basket 89
benefici@@ 89
boosted 89
calculations 89
checks 89
compar@@ 89
compare 89
competent 89
conduc@@ 89
consolidate 89
containment 89
debtor 89
deter 89
deterrence 89
distress 89
distribute 89
exchanges 89
fasci@@ 89
formidable 89
gathering 89
grasp 89
hence 89
human-@@ 89
inging 89
insisted 89
interim 89
miles 89
navig@@ 89
neglect 89
oking 89
peace@@ 89
ram@@ 89
ramp@@ 89
rill@@ 89
sci@@ 89
slau@@ 89
soaring 89
tack@@ 89
ush@@ 89
warded 89
­ 89
3.5 88
800 88
Dec@@ 88
Declaration 88
Egyptians 88
Gaul@@ 88
Kaz@@ 88
Obviously 88
Tam@@ 88
abandoning 88
advisers 88
aggrav@@ 88
approaching 88
aris@@ 88
ball 88
bean 88
beliefs 88
budgetary 88
burning 88
calm 88
certainties 88
charis@@ 88
contempl@@ 88
convers@@ 88
decreas@@ 88
deliberately 88
deposit 88
diminish 88
director 88
discovery 88
drivers 88
eat 88
entit@@ 88
environmentally 88
eps 88
erial 88
ethics 88
eve 88
examine 88
expectation 88
extern@@ 88
facilitating 88
fraud 88
fted 88
genuinely 88
ground@@ 88
heading 88
hegem@@ 88
ights 88
illing 88
infections 88
inputs 88
interference 88
itu@@ 88
keen 88
listic 88
mitting 88
ong-@@ 88
parliaments 88
patrio@@ 88
persecu@@ 88
polio 88
representing 88
restraint 88
ror 88
secu@@ 88
see@@ 88
superior 88
temptation 88
tile 88
tto 88
unclear 88
vary 88
venture 88
winner 88
Age 87
Bo 87
Calder@@ 87
Developing 87
Four 87
Haiti 87
Juncker 87
Wolf@@ 87
Zion@@ 87
accumulated 87
box 87
capability 87
civil-society 87
cognitive 87
da@@ 87
dangerously 87
decisively 87
dismissed 87
distrust 87
exclusion 87
exclusive 87
gene 87
guidelines 87
gun@@ 87
hesit@@ 87
illusion 87
impoverished 87
influenced 87
intoler@@ 87
irrational 87
ital 87
justi@@ 87
ki@@ 87
maj@@ 87
manufacturers 87
method 87
misleading 87
moon 87
nical 87
operational 87
outflows 87
peripheral 87
pervasive 87
petro@@ 87
polar@@ 87
portion 87
precipit@@ 87
reference 87
reveals 87
scandal 87
simil@@ 87
slo@@ 87
succession 87
though@@ 87
thrown 87
tight 87
vest@@ 87
warnings 87
who@@ 87
wind@@ 87
Ap@@ 86
CE 86
Capital 86
Charter 86
Fre@@ 86
Gazprom 86
Moldo@@ 86
Nothing 86
Pl@@ 86
Pra@@ 86
Reco@@ 86
Rwanda 86
TOKYO 86
ament 86
arching 86
ata 86
bin 86
blo@@ 86
cess 86
cial 86
combine 86
comprise 86
conscious 86
consequ@@ 86
conservatives 86
counts 86
distingu@@ 86
drough@@ 86
electronic 86
entities 86
exceeds 86
ference 86
finished 86
fled 86
forgotten 86
graphic 86
grim 86
gui@@ 86
imperf@@ 86
invo@@ 86
isn 86
mode@@ 86
multip@@ 86
mus@@ 86
musi@@ 86
newspapers 86
onom@@ 86
orial 86
patent 86
percei@@ 86
perpetu@@ 86
pin@@ 86
potent 86
print 86
priv@@ 86
ranking 86
ration 86
reminder 86
remittances 86
semi-@@ 86
sionary 86
square 86
stabili@@ 86
stock-market 86
subsequently 86
substan@@ 86
tan 86
tasks 86
timing 86
toc@@ 86
tos 86
unfol@@ 86
unnecessary 86
vide@@ 86
� 86
&apos;t 85
0.5 85
27@@ 85
50,000 85
Baghd@@ 85
Darfur 85
Future 85
Hist@@ 85
Manu@@ 85
Mer@@ 85
Reform 85
Wen 85
Yeltsin 85
absent 85
accomplished 85
ailing 85
ballot 85
beau@@ 85
cali@@ 85
cele@@ 85
censorship 85
coastal 85
consume 85
contains 85
conviction 85
ctic 85
drag 85
ecological 85
elimin@@ 85
encourages 85
erosion 85
fault 85
fed 85
fif@@ 85
fragmented 85
griev@@ 85
hang 85
helpful 85
honest 85
ince 85
inhi@@ 85
lobb@@ 85
malnutrition 85
mega@@ 85
misguided 85
miss 85
necess@@ 85
organ@@ 85
pan-@@ 85
paradig@@ 85
perpetr@@ 85
pest 85
postpon@@ 85
prone 85
prosp@@ 85
reconcile 85
reconstruction 85
reforming 85
remarkably 85
reportedly 85
roll@@ 85
routine 85
scenarios 85
sentim@@ 85
sioned 85
socialist 85
stakeholders 85
stances 85
stark 85
storage 85
super-@@ 85
tariff 85
tening 85
transforming 85
unusual 85
vere@@ 85
wins 85
Australian 84
Balkans 84
Banks 84
Far 84
Five 84
G-7 84
Gold@@ 84
Markets 84
NT@@ 84
Ol@@ 84
Os 84
Oslo 84
Rem@@ 84
Rome 84
SM@@ 84
advent@@ 84
ake 84
allevi@@ 84
asing 84
bassador 84
behalf 84
blood@@ 84
boy@@ 84
cautious 84
circum@@ 84
dation 84
decent@@ 84
democratization 84
denial 84
deter@@ 84
determining 84
dily 84
domes@@ 84
du 84
echo@@ 84
ens@@ 84
entail 84
factions 84
fashi@@ 84
fic 84
freedoms 84
frontier 84
gment 84
hide 84
hikes 84
hiring 84
imperi@@ 84
imported 84
inaction 84
inal 84
infected 84
insp@@ 84
lest 84
lifting 84
logically 84
meanwhile 84
mistr@@ 84
myriad 84
native 84
ough@@ 84
pivot 84
plac@@ 84
polarization 84
preh@@ 84
recessions 84
rend@@ 84
repair 84
scene 84
score 84
secured 84
servic@@ 84
siz@@ 84
spreads 84
stand@@ 84
star 84
tia 84
vy 84
xed 84
xi@@ 84
-to-@@ 83
1.4 83
AT@@ 83
Agri@@ 83
BC 83
Belar@@ 83
Consensus 83
Ghan@@ 83
Hi@@ 83
Moder@@ 83
ONG 83
Pa@@ 83
Premier 83
Sam@@ 83
agend@@ 83
anese 83
annex@@ 83
atist 83
audience 83
bel 83
citizenship 83
cler@@ 83
comfort 83
crack@@ 83
daunting 83
disputed 83
distr@@ 83
disturbing 83
dor@@ 83
elec@@ 83
entioned 83
erup@@ 83
eu@@ 83
ex-@@ 83
extension 83
fast-@@ 83
foot@@ 83
frag@@ 83
haven 83
imper@@ 83
infl@@ 83
ingent 83
inherent 83
insights 83
invited 83
memb@@ 83
minor 83
mit 83
nec@@ 83
negotiators 83
nya 83
personnel 83
predictions 83
privacy 83
recall 83
reflection 83
resentment 83
seized 83
ser 83
sibilities 83
sored 83
sul@@ 83
sumption 83
taught 83
tren@@ 83
ula 83
undertaken 83
unpopular 83
vakia 83
yc@@ 83
yi@@ 83
1.2 82
2,@@ 82
Anti@@ 82
Armen@@ 82
BEIJING 82
Congressional 82
Debt 82
Emp@@ 82
Gordon 82
Hun@@ 82
Incre@@ 82
Ke@@ 82
Regul@@ 82
Ru@@ 82
Scandinavi@@ 82
Throughout 82
Yugoslavia 82
aggressively 82
ais@@ 82
alo@@ 82
amend@@ 82
amid 82
arer 82
arious 82
asion 82
assert 82
averaged 82
bitter 82
blun@@ 82
clash 82
clients 82
counted 82
ction 82
dep@@ 82
dependency 82
depth 82
deser@@ 82
dimen@@ 82
discrimin@@ 82
disproportionate 82
east 82
entrepreneurship 82
expe@@ 82
faste@@ 82
fortunate 82
frustrated 82
gen 82
gran@@ 82
gues 82
hatred 82
hazard 82
ica 82
individu@@ 82
investment-@@ 82
irresponsible 82
liberalism 82
link@@ 82
liquid 82
mid@@ 82
mudd@@ 82
no-@@ 82
perman@@ 82
poised 82
producer 82
profession 82
projections 82
ranted 82
real-@@ 82
repeat 82
restricted 82
skeptical 82
slump 82
sounds 82
spoken 82
statistical 82
suppliers 82
surveys 82
t-wing 82
techniques 82
treas@@ 82
veness 82
Abdullah 81
Budd@@ 81
Cam@@ 81
Chirac 81
Dru@@ 81
Either 81
HAVEN 81
Henry 81
J 81
Leader 81
Li 81
Maastricht 81
Movement 81
Nep@@ 81
PE@@ 81
Speci@@ 81
Stra@@ 81
Swis@@ 81
Terr@@ 81
US-led 81
accid@@ 81
advant@@ 81
appetite 81
approximately 81
champi@@ 81
closest 81
countr@@ 81
departure 81
descen@@ 81
distortions 81
econom@@ 81
ectly 81
empiri@@ 81
entary 81
essence 81
favors 81
ffic@@ 81
formula 81
forth 81
futures 81
gotten 81
gun 81
habits 81
hamed 81
horizon 81
ignoring 81
inci@@ 81
indigenous 81
inely 81
inqu@@ 81
itive 81
jan 81
je@@ 81
job@@ 81
lever@@ 81
like@@ 81
loyalty 81
meat 81
much-needed 81
names 81
non-state 81
olu@@ 81
olution@@ 81
om 81
open@@ 81
ow 81
ox@@ 81
premature 81
preserving 81
produc@@ 81
provi@@ 81
receives 81
recomm@@ 81
recommended 81
resisted 81
rout@@ 81
sanitation 81
satisfaction 81
secul@@ 81
seeds 81
signing 81
silence 81
stalled 81
state@@ 81
swing 81
tactical 81
tanks 81
thesis 81
trapped 81
ud 81
xim@@ 81
ym@@ 81
,0@@ 80
10-@@ 80
1930s 80
55 80
6-@@ 80
Ale@@ 80
Asians 80
Chen 80
Former 80
Fukushima 80
Geneva 80
Good 80
Hos@@ 80
Jose@@ 80
Liberal 80
MDGs 80
McKin@@ 80
Prog@@ 80
San 80
Sanders 80
Shar@@ 80
Spe@@ 80
Thom@@ 80
Under@@ 80
accessible 80
addic@@ 80
alco@@ 80
anu@@ 80
attracting 80
authorit@@ 80
bail 80
bar 80
believ@@ 80
cards 80
centralized 80
cere@@ 80
composition 80
continental 80
differenti@@ 80
enced 80
equitable 80
errors 80
excess@@ 80
excuse 80
expec@@ 80
feelings 80
five-year 80
flu@@ 80
ford 80
gar 80
ge-@@ 80
glob@@ 80
hat@@ 80
high-level 80
hurrican@@ 80
incumbent 80
industrialized 80
ineffici@@ 80
inflation-adjusted 80
insight 80
intensity 80
jiha@@ 80
kno@@ 80
lays 80
market-based 80
memories 80
met@@ 80
metap@@ 80
mping 80
norm 80
occasion 80
oce@@ 80
ort 80
pled@@ 80
presumably 80
pron@@ 80
propose 80
propri@@ 80
psychology 80
quarter-@@ 80
radically 80
rat 80
redistribution 80
reluctance 80
remedi@@ 80
rescu@@ 80
revised 80
scheduled 80
separation 80
ski 80
socio@@ 80
spends 80
sport 80
squee@@ 80
sten@@ 80
sub-prime 80
suspect 80
theast 80
triggering 80
tz 80
2007-@@ 79
AN 79
Administr@@ 79
Almost 79
Ayatol@@ 79
BR@@ 79
CP 79
Davo@@ 79
IA@@ 79
Jan@@ 79
Mul@@ 79
Silk 79
VI@@ 79
absur@@ 79
allied 79
bombs 79
breakthroughs 79
central-bank 79
chur@@ 79
cliff 79
collectively 79
combating 79
contain@@ 79
discontent 79
discourage 79
ef 79
embo@@ 79
entreprene@@ 79
episode 79
eties 79
exceptions 79
fet@@ 79
fragmentation 79
gest@@ 79
grip 79
ify 79
impunity 79
inequalities 79
ingredi@@ 79
inherited 79
letting 79
lying 79
mir 79
morality 79
multil@@ 79
natur@@ 79
nobody 79
object 79
overcoming 79
overnight 79
participating 79
pati@@ 79
permitted 79
physics 79
politan 79
practically 79
prize 79
probability 79
processing 79
psy@@ 79
react 79
reckless 79
resha@@ 79
resource-@@ 79
retro@@ 79
revived 79
satisfy 79
scrutiny 79
sians 79
silent 79
sitting 79
sty 79
surance 79
symbolic 79
telecommunic@@ 79
tells 79
text@@ 79
thal 79
thrive 79
tish 79
vast@@ 79
wary 79
witnessed 79
Conserv@@ 78
EC@@ 78
Fin@@ 78
Gen@@ 78
NA 78
Olympic 78
PR@@ 78
Panel 78
Pope 78
Renzi 78
Sad@@ 78
Tok@@ 78
Vice 78
articul@@ 78
bankrup@@ 78
bases 78
beings 78
beli@@ 78
brief 78
coc@@ 78
compu@@ 78
con 78
contest 78
corporate-@@ 78
defe@@ 78
depending 78
deploy 78
dical 78
discredited 78
dividends 78
doors 78
dubi@@ 78
embracing 78
emin@@ 78
employ@@ 78
enligh@@ 78
enopho@@ 78
erto 78
feels 78
grant 78
idable 78
ignorance 78
imminent 78
introducing 78
lately 78
liberals 78
licop@@ 78
lifetime 78
long-standing 78
mach@@ 78
manship 78
medic@@ 78
metric 78
milit@@ 78
minal 78
nard 78
night@@ 78
organic 78
origins 78
ousse@@ 78
panies 78
particip@@ 78
plas@@ 78
profitability 78
promo@@ 78
rea 78
reactions 78
relev@@ 78
removing 78
retreat 78
ronically 78
savers 78
sighted 78
sole@@ 78
spectrum 78
sumer@@ 78
symbol 78
thodo@@ 78
trusted 78
tted 78
ually 78
urity 78
xes 78
í@@ 78
Mus@@ 77
Venezu@@ 77
acceler@@ 77
contro@@ 77
coura@@ 77
embe@@ 77
ems 77
eth 77
farm@@ 77
isms 77
nineteen@@ 77
pal 77
reali@@ 77
serv@@ 77
show@@ 77
stoc@@ 77
tech@@ 77
tries 77
tually 77
Dra@@ 76
EL@@ 76
Europe@@ 76
Fun@@ 76
K 76
Scot@@ 76
Tru@@ 76
absolu@@ 76
appropri@@ 76
coali@@ 76
compreh@@ 76
cong@@ 76
dictat@@ 76
epi@@ 76
episo@@ 76
judic@@ 76
stly 76
understand@@ 76
will@@ 76
ö@@ 76
agn@@ 75
autonom@@ 75
compens@@ 75
eas@@ 75
enty 75
exacerb@@ 75
gry 75
mater@@ 75
phil@@ 75
prag@@ 75
purcha@@ 75
reconc@@ 75
refu@@ 75
reve@@ 75
sat@@ 75
scand@@ 75
schol@@ 75
sensi@@ 75
sump@@ 75
Argent@@ 74
Some@@ 74
administr@@ 74
boun@@ 74
consci@@ 74
convic@@ 74
eld 74
evi@@ 74
fem@@ 74
guided 74
maintain@@ 74
nati@@ 74
philos@@ 74
pois@@ 74
preser@@ 74
thern 74
trilli@@ 74
usted 74
vest 74
Joh@@ 73
Ken@@ 73
bank@@ 73
blin@@ 73
curren@@ 73
dex 73
frustr@@ 73
igns 73
istan 73
j 73
marg@@ 73
mature 73
prop@@ 73
sac@@ 73
tability 73
technolog@@ 73
urities 73
valuation 73
At@@ 72
Itali@@ 72
Pan@@ 72
ails 72
anks 72
ays 72
eff@@ 72
gement 72
hum@@ 72
issu@@ 72
practic@@ 72
prin@@ 72
ven 72
Nic@@ 71
RI@@ 71
cher 71
climate-@@ 71
democ@@ 71
displac@@ 71
explan@@ 71
financi@@ 71
gal 71
grou@@ 71
internation@@ 71
ll@@ 71
mely 71
nesses 71
overwhel@@ 71
prepar@@ 71
rency 71
stic@@ 71
strugg@@ 71
sume 71
twenty-@@ 71
wea@@ 71
Chur@@ 70
acu@@ 70
adj@@ 70
ager 70
ambi@@ 70
archit@@ 70
attrac@@ 70
basi@@ 70
capac@@ 70
consoli@@ 70
erci@@ 70
fer 70
gies 70
langu@@ 70
ond 70
referen@@ 70
tral 70
Bra@@ 69
Colom@@ 69
Coun@@ 69
Simil@@ 69
airs 69
balancing 69
confid@@ 69
diplom@@ 69
ko@@ 69
magn@@ 69
nan@@ 69
pit@@ 69
propor@@ 69
ralized 69
suc@@ 69
tribu@@ 69
valent 69
BE@@ 68
Chan@@ 68
Jin@@ 68
achiev@@ 68
anni@@ 68
apers 68
aul@@ 68
beg@@ 68
bin@@ 68
depar@@ 68
dren 68
ethn@@ 68
ety 68
fare 68
happ@@ 68
izes 68
own@@ 68
progra@@ 68
rud@@ 68
scen@@ 68
seas 68
spectac@@ 68
struction 68
vehic@@ 68
weak@@ 68
ween 68
wered 68
Bos@@ 67
Olymp@@ 67
avi@@ 67
balance-@@ 67
cross-@@ 67
embly 67
ever@@ 67
philosoph@@ 67
portfoli@@ 67
share@@ 67
tative 67
uck 67
AD@@ 66
Char@@ 66
after@@ 66
anx@@ 66
ense 66
fal@@ 66
hop@@ 66
igno@@ 66
mechan@@ 66
oppon@@ 66
pipel@@ 66
privati@@ 66
proper@@ 66
remar@@ 66
rish 66
rying 66
soli@@ 66
sses 66
stud@@ 66
suppor@@ 66
ttle 66
vulner@@ 66
Ag@@ 65
Cong@@ 65
Corpor@@ 65
Cz@@ 65
Georgi@@ 65
Holl@@ 65
IS 65
Indi@@ 65
Ye@@ 65
alli@@ 65
assa@@ 65
civi@@ 65
cohe@@ 65
dil@@ 65
echan@@ 65
ership 65
gh 65
ion@@ 65
mise 65
politici@@ 65
preced@@ 65
risk@@ 65
streng@@ 65
sustain@@ 65
ä@@ 65
DS 64
Tre@@ 64
adays 64
asts 64
deepen@@ 64
econ@@ 64
eration 64
etary 64
liferation 64
metri@@ 64
monit@@ 64
ou 64
ower 64
persi@@ 64
regar@@ 64
superi@@ 64
surr@@ 64
sus 64
tect 64
tom 64
witness@@ 64
Dem@@ 63
Ni@@ 63
asp@@ 63
attr@@ 63
consist@@ 63
dia 63
electri@@ 63
elling 63
em 63
estim@@ 63
ffs 63
hap@@ 63
illu@@ 63
ima 63
inhe@@ 63
ition 63
ours 63
parado@@ 63
restruc@@ 63
sever@@ 63
sex@@ 63
tane@@ 63
urban@@ 63
Sau@@ 62
cot@@ 62
distinc@@ 62
dition 62
employe@@ 62
erity 62
fat 62
impro@@ 62
induc@@ 62
knowled@@ 62
mun@@ 62
obser@@ 62
reach@@ 62
sovere@@ 62
terri@@ 62
tra-@@ 62
AS@@ 61
US@@ 61
accep@@ 61
ace@@ 61
conserv@@ 61
enorm@@ 61
functional 61
inher@@ 61
ne 61
slow@@ 61
ues 61
Bro@@ 60
Democ@@ 60
ON@@ 60
\ 60
affor@@ 60
asive 60
cker 60
darity 60
dis 60
fav@@ 60
fol@@ 60
leveraging 60
oph@@ 60
pers@@ 60
relati@@ 60
shment 60
sibility 60
tality 60
tas@@ 60
terr@@ 60
thro@@ 60
titu@@ 60
vol@@ 60
vul@@ 60
Er@@ 59
Lan@@ 59
Strate@@ 59
TO@@ 59
acro@@ 59
cam@@ 59
child@@ 59
colle@@ 59
contra@@ 59
cris@@ 59
demon@@ 59
ferences 59
phenomen@@ 59
pow@@ 59
them@@ 59
world@@ 59
xon 59
Austri@@ 58
Es 58
Gol@@ 58
PP 58
alth@@ 58
barri@@ 58
bled 58
dee@@ 58
eler@@ 58
mom@@ 58
prim@@ 58
rali@@ 58
zer@@ 58
8-@@ 57
aim@@ 57
ateral 57
corpor@@ 57
deep@@ 57
defa@@ 57
discus@@ 57
electr@@ 57
friend@@ 57
idance 57
know@@ 57
ment-@@ 57
mini@@ 57
much-@@ 57
net@@ 57
pain@@ 57
prevail@@ 57
scru@@ 57
si 57
stitu@@ 57
Fu@@ 56
Israel@@ 56
Sar@@ 56
acks 56
chron@@ 56
crimin@@ 56
deplo@@ 56
environ@@ 56
err@@ 56
extre@@ 56
f-@@ 56
figh@@ 56
hoods 56
kil@@ 56
neighbor@@ 56
pressive 56
racies 56
rese@@ 56
symp@@ 56
tary-@@ 56
Af@@ 55
Fri@@ 55
Ren@@ 55
Tim@@ 55
audi@@ 55
disproportion@@ 55
dys@@ 55
ellow 55
indeb@@ 55
iter@@ 55
rhe@@ 55
LI@@ 54
aspir@@ 54
competi@@ 54
enhan@@ 54
evid@@ 54
free-@@ 54
ght 54
imm@@ 54
orities 54
policy@@ 54
repa@@ 54
skill@@ 54
um-@@ 54
Brit@@ 53
Taiw@@ 53
akes 53
ands 53
arbit@@ 53
borrow@@ 53
essors 53
expla@@ 53
fas@@ 53
frequ@@ 53
har 53
inclu@@ 53
militi@@ 53
opini@@ 53
paralle@@ 53
reven@@ 53
tious 53
Br@@ 52
Keyne@@ 52
ady 52
aper 52
cess@@ 52
compli@@ 52
depen@@ 52
green@@ 52
istics 52
itly 52
measu@@ 52
mist@@ 52
rag@@ 52
ree 52
uti@@ 52
vices 52
BRI@@ 51
IN@@ 51
Ukraini@@ 51
Wo@@ 51
applic@@ 51
blam@@ 51
comfor@@ 51
decision-@@ 51
denom@@ 51
dividu@@ 51
ectives 51
ek 51
eral 51
plom@@ 51
rative 51
restim@@ 51
seem@@ 51
symboli@@ 51
taxpay@@ 51
trage@@ 51
volum@@ 51
º 51
Sing@@ 50
Stre@@ 50
adjust@@ 50
alogue 50
asylu@@ 50
cooper@@ 50
dou@@ 50
establi@@ 50
illions 50
liquid@@ 50
mee@@ 50
other@@ 50
recei@@ 50
rs 50
success@@ 50
tenden@@ 50
tless 50
weap@@ 50
° 50
ú@@ 50
Finan@@ 49
Fren@@ 49
German@@ 49
Sud@@ 49
Turk@@ 49
aly@@ 49
artific@@ 49
dary 49
elector@@ 49
great@@ 49
ici@@ 49
inflation-@@ 49
ray 49
resist@@ 49
ressive 49
socie@@ 49
ssi@@ 49
ü@@ 49
Alger@@ 48
Cen@@ 48
Ger@@ 48
Green@@ 48
aban@@ 48
accord@@ 48
craft 48
ctions 48
fig@@ 48
meaning@@ 48
ose@@ 48
perpe@@ 48
princi@@ 48
pursu@@ 48
standar@@ 48
tem@@ 48
tories 48
twenti@@ 48
Fore@@ 47
Fron@@ 47
USS@@ 47
Y 47
deman@@ 47
dign@@ 47
draw@@ 47
nel 47
nings 47
outh 47
recon@@ 47
redi@@ 47
repor@@ 47
sident 47
thu@@ 47
ught 47
£ 47
Cal@@ 46
Chris@@ 46
Eth@@ 46
Jap@@ 46
adequ@@ 46
adv@@ 46
astr@@ 46
conc@@ 46
defl@@ 46
distur@@ 46
efs 46
highligh@@ 46
horiz@@ 46
illen@@ 46
independ@@ 46
itably 46
lantic 46
nia 46
pack@@ 46
strength@@ 46
surp@@ 46
ï@@ 46
Chi@@ 45
Gener@@ 45
Oc@@ 45
candi@@ 45
environment@@ 45
migr@@ 45
versal 45
è@@ 45
Ay@@ 44
Bang@@ 44
Eng@@ 44
Hung@@ 44
Initi@@ 44
cil 44
ells 44
elt@@ 44
encoura@@ 44
entional 44
gent@@ 44
omics 44
persp@@ 44
prac@@ 44
proj@@ 44
Afri@@ 43
IM@@ 43
Iran@@ 43
contin@@ 43
democrati@@ 43
enlar@@ 43
faction 43
fers 43
guarante@@ 43
lear@@ 43
lo 43
opho@@ 43
physi@@ 43
process@@ 43
rele@@ 43
stem@@ 43
strong@@ 43
suff@@ 43
trium@@ 43
unde@@ 43
Aust@@ 42
EN 42
Fried@@ 42
Pakist@@ 42
accor@@ 42
arch 42
crit@@ 42
entially 42
follow@@ 42
gir@@ 42
liqu@@ 42
mad 42
pared 42
ply 42
sistance 42
vo 42
xit 42
Portu@@ 41
bon 41
cell@@ 41
degra@@ 41
dilem@@ 41
igners 41
industri@@ 41
mass@@ 41
negoti@@ 41
one@@ 41
spa@@ 41
suspici@@ 41
CS 40
DP@@ 40
Glob@@ 40
Kur@@ 40
Publi@@ 40
Shin@@ 40
Sim@@ 40
Wi@@ 40
alu@@ 40
atures 40
choo@@ 40
ditional 40
ecture 40
enge 40
ffice 40
five-@@ 40
goti@@ 40
idden 40
iri@@ 40
ldn 40
mortg@@ 40
plau@@ 40
proportion@@ 40
refl@@ 40
ully 40
vill@@ 40
vious 40
FD@@ 39
Fur@@ 39
agement 39
bloo@@ 39
chil@@ 39
comparis@@ 39
conv@@ 39
cyc@@ 39
doctr@@ 39
enfor@@ 39
erous 39
mig@@ 39
multin@@ 39
oner 39
ope 39
preme 39
sovereign-@@ 39
wide@@ 39
year-@@ 39
-scale 38
FT@@ 38
Fis@@ 38
alth 38
confin@@ 38
en-@@ 38
ey@@ 38
feren@@ 38
ile@@ 38
simultane@@ 38
sion-@@ 38
temper@@ 38
thering 38
ć 38
Deb@@ 37
Develop@@ 37
G-@@ 37
Indone@@ 37
Jord@@ 37
Pal@@ 37
SO@@ 37
TO 37
Tuni@@ 37
aggreg@@ 37
ause 37
cide 37
corrup@@ 37
dea@@ 37
dispu@@ 37
ecti@@ 37
essions 37
fferen@@ 37
hosp@@ 37
icro@@ 37
instr@@ 37
kep@@ 37
meth@@ 37
ness@@ 37
nex@@ 37
opport@@ 37
pover@@ 37
research@@ 37
rhetor@@ 37
sigh@@ 37
uries 37
velo@@ 37
Bec@@ 36
Bel@@ 36
Belgi@@ 36
Chri@@ 36
Net@@ 36
Rob@@ 36
Rou@@ 36
WW@@ 36
Z 36
antibio@@ 36
bas 36
cid@@ 36
confir@@ 36
ingdom 36
moment@@ 36
pple 36
private-@@ 36
sewhere 36
so-@@ 36
stake@@ 36
structive 36
tocol 36
vered 36
Fat@@ 35
Ker@@ 35
Por@@ 35
beha@@ 35
bud@@ 35
cate@@ 35
control@@ 35
dament@@ 35
enty-@@ 35
fail@@ 35
health-@@ 35
heavi@@ 35
ord@@ 35
perfor@@ 35
presum@@ 35
prohi@@ 35
resent@@ 35
rican@@ 35
surve@@ 35
well@@ 35
Au@@ 34
Den@@ 34
Grow@@ 34
Vie@@ 34
Yu@@ 34
abe@@ 34
bureauc@@ 34
coast@@ 34
eci@@ 34
histor@@ 34
ignor@@ 34
incumb@@ 34
intellectu@@ 34
lash 34
legis@@ 34
mani@@ 34
parliam@@ 34
pivo@@ 34
profession@@ 34
refore 34
rism 34
tn@@ 34
tox@@ 34
uled 34
agh@@ 33
ald 33
atmo@@ 33
fair@@ 33
inno@@ 33
orig@@ 33
partment 33
politic@@ 33
q 33
secon@@ 33
skep@@ 33
Ass@@ 32
Wol@@ 32
allow@@ 32
beh@@ 32
credited 32
desh 32
ech 32
emerging-@@ 32
func@@ 32
genous 32
gest 32
hes@@ 32
inte@@ 32
ister 32
lead@@ 32
manu@@ 32
ods 32
perv@@ 32
posite 32
ression 32
scienti@@ 32
treat@@ 32
udd@@ 32
vez 32
Malay@@ 31
Mexic@@ 31
NP@@ 31
Nov@@ 31
Sustain@@ 31
abs@@ 31
anxie@@ 31
defic@@ 31
dow 31
ectively 31
fore 31
geno@@ 31
hou@@ 31
house@@ 31
medium-@@ 31
nat@@ 31
nuc@@ 31
ongest 31
orist 31
percent@@ 31
proble@@ 31
rements 31
seri@@ 31
supply-@@ 31
tian 31
tracted 31
ults 31
wis@@ 31
zi 31
Bangla@@ 30
Saharan 30
Som@@ 30
X 30
abili@@ 30
accompan@@ 30
destro@@ 30
gul@@ 30
ic-@@ 30
idly 30
ladi@@ 30
ld@@ 30
missi@@ 30
presid@@ 30
rais@@ 30
recommend@@ 30
sin 30
stantly 30
tially 30
usti@@ 30
versary 30
Hen@@ 29
On@@ 29
abli@@ 29
differen@@ 29
enh@@ 29
enrich@@ 29
harm@@ 29
help@@ 29
hosti@@ 29
itarian 29
mean@@ 29
sophistic@@ 29
stant 29
surpris@@ 29
vals 29
versity 29
victim@@ 29
à 29
&apos;@@ 28
Boli@@ 28
Progra@@ 28
Span@@ 28
Yor@@ 28
astern 28
depend@@ 28
dings 28
ean 28
elings 28
incor@@ 28
inejad 28
liers 28
og@@ 28
pharmaceu@@ 28
primar@@ 28
resour@@ 28
stom@@ 28
stored 28
tton 28
wer 28
ã@@ 28
Jer@@ 27
Jun@@ 27
Phili@@ 27
achi@@ 27
aily 27
bass@@ 27
cens@@ 27
challeng@@ 27
civil-@@ 27
claim@@ 27
cuse 27
deriv@@ 27
dities 27
dreds 27
emen 27
ied 27
math 27
numer@@ 27
plum@@ 27
propag@@ 27
reate 27
soldi@@ 27
ticip@@ 27
ticle 27
typ@@ 27
youn@@ 27
ç@@ 27
ó@@ 27
Busin@@ 26
Cambo@@ 26
Fir@@ 26
Fuk@@ 26
aggres@@ 26
appear@@ 26
approach@@ 26
atis@@ 26
avoi@@ 26
bot@@ 26
credi@@ 26
cue 26
dise@@ 26
ging-@@ 26
hous@@ 26
iti 26
midd@@ 26
ound@@ 26
pharm@@ 26
rang@@ 26
recap@@ 26
tance 26
telec@@ 26
trigg@@ 26
2008-@@ 25
Asi@@ 25
Med@@ 25
Philipp@@ 25
astro@@ 25
ba 25
centr@@ 25
central-@@ 25
dable 25
ember 25
icide 25
norm@@ 25
present@@ 25
rance 25
spli@@ 25
tsunam@@ 25
Brazili@@ 24
Cle@@ 24
Clin@@ 24
Ethiop@@ 24
Kha@@ 24
Nicol@@ 24
TON 24
U-@@ 24
accoun@@ 24
agno@@ 24
agues 24
arg@@ 24
bankrupt@@ 24
camp@@ 24
conn@@ 24
easi@@ 24
effici@@ 24
entren@@ 24
intere@@ 24
manufactu@@ 24
middle-@@ 24
uments 24
Afgh@@ 23
Lab@@ 23
Vietn@@ 23
agan 23
anci@@ 23
ante@@ 23
carb@@ 23
catastroph@@ 23
cellor 23
comment@@ 23
controversi@@ 23
dations 23
dening 23
dum 23
ei 23
famili@@ 23
illennium 23
infra@@ 23
mob@@ 23
ources 23
quick@@ 23
rel 23
sider 23
situ@@ 23
sligh@@ 23
terror@@ 23
Engli@@ 22
Fol@@ 22
IB 22
Israeli-@@ 22
Kin@@ 22
Kore@@ 22
Moroc@@ 22
Palestini@@ 22
_ 22
approxim@@ 22
asy@@ 22
contag@@ 22
develo@@ 22
earthqu@@ 22
ellec@@ 22
embrac@@ 22
flexi@@ 22
hospit@@ 22
ield 22
inspi@@ 22
longer-@@ 22
mari@@ 22
particul@@ 22
publican 22
ques 22
rable 22
suffici@@ 22
tancy 22
ument 22
veh@@ 22
Constitu@@ 21
Gul@@ 21
Industri@@ 21
Scho@@ 21
Secre@@ 21
That@@ 21
answ@@ 21
cab@@ 21
disast@@ 21
doms 21
intellec@@ 21
introduc@@ 21
itability 21
legi@@ 21
mend@@ 21
oples 21
orship 21
reads 21
remit@@ 21
techni@@ 21
thresh@@ 21
transpa@@ 21
uman 21
usal 21
É@@ 21
Abdul@@ 20
Afghan@@ 20
Auth@@ 20
Indu@@ 20
Parliam@@ 20
adop@@ 20
aust@@ 20
bec@@ 20
compan@@ 20
dded 20
ecially 20
exac@@ 20
exter@@ 20
facili@@ 20
grow@@ 20
ha 20
ices 20
invol@@ 20
ird 20
kilome@@ 20
lical 20
mance 20
pare 20
pper 20
reng@@ 20
uch 20
zo 20
• 20
Educ@@ 19
Q 19
afi 19
anda 19
deploy@@ 19
disastr@@ 19
elds 19
eria 19
hm@@ 19
import@@ 19
invest@@ 19
marri@@ 19
pose@@ 19
profes@@ 19
prou@@ 19
reluc@@ 19
sib@@ 19
stitute 19
theless 19
uch@@ 19
underpin@@ 19
Grou@@ 18
PEC 18
Somali@@ 18
ciliation 18
citizen@@ 18
denly 18
dimini@@ 18
foc@@ 18
ign-@@ 18
il-@@ 18
ington 18
meric@@ 18
nis 18
ois 18
ource 18
pel@@ 18
posure 18
prolong@@ 18
remain@@ 18
sers 18
tances 18
thqu@@ 18
value-@@ 18
viously 18
ô@@ 18
ł@@ 18
− 18
Catholi@@ 17
Gaz@@ 17
Geor@@ 17
Organiz@@ 17
Partn@@ 17
Qa@@ 17
Tai@@ 17
abandon@@ 17
budge@@ 17
commo@@ 17
convinc@@ 17
dram@@ 17
eij@@ 17
ilateral 17
impover@@ 17
jeopar@@ 17
posit 17
renmin@@ 17
rit 17
rough@@ 17
scap@@ 17
st-rate 17
symptom@@ 17
ticism 17
xide 17
º@@ 17
BER@@ 16
agri@@ 16
armament 16
balan@@ 16
call@@ 16
fur 16
idd@@ 16
ilater@@ 16
inev@@ 16
lared 16
live@@ 16
mly 16
mort@@ 16
prene@@ 16
riad 16
unting 16
vement 16
verage 16
Aug@@ 15
Foun@@ 15
atedly 15
bub@@ 15
cand@@ 15
cogn@@ 15
compati@@ 15
dens 15
ergy 15
event@@ 15
hai 15
nes 15
oto 15
reduc@@ 15
simul@@ 15
stim@@ 15
tradi@@ 15
trum 15
ń@@ 15
Egyp@@ 14
Hus@@ 14
Koso@@ 14
Lon@@ 14
Qat@@ 14
Rwan@@ 14
Sem@@ 14
charac@@ 14
cili@@ 14
close@@ 14
dred 14
enom@@ 14
enthusi@@ 14
ern 14
erships 14
finan@@ 14
fossil-@@ 14
gem@@ 14
ight@@ 14
ilities 14
occupi@@ 14
techno@@ 14
tremend@@ 14
unpreced@@ 14
usu@@ 14
ê@@ 14
Agre@@ 13
Cour@@ 13
Franc@@ 13
More@@ 13
Tech@@ 13
crete 13
ffered 13
inet 13
lam 13
lear-@@ 13
orm@@ 13
portation 13
prise 13
reas 13
recogn@@ 13
resol@@ 13
rom 13
stock-@@ 13
versi@@ 13
versities 13
â 13
ž@@ 13
ASE@@ 12
ELE@@ 12
Mol@@ 12
Mubar@@ 12
Nuc@@ 12
Oce@@ 12
Tali@@ 12
Trans-@@ 12
avig@@ 12
change-@@ 12
contem@@ 12
hani 12
ignty 12
iture 12
kel 12
lihood 12
orrow 12
regim@@ 12
represent@@ 12
stac@@ 12
statis@@ 12
tempor@@ 12
tians 12
tings 12
Alli@@ 11
Associ@@ 11
Free@@ 11
Key@@ 11
ON 11
Sahar@@ 11
acco 11
aceu@@ 11
anem@@ 11
argu@@ 11
dynam@@ 11
eda 11
gger 11
hist@@ 11
illenni@@ 11
incenti@@ 11
intro@@ 11
oblig@@ 11
oler@@ 11
phy@@ 11
scape 11
schem@@ 11
sunam@@ 11
trajec@@ 11
ultim@@ 11
unities 11
urani@@ 11
wom@@ 11
ymp@@ 11
‒ 11
Australi@@ 10
CAM@@ 10
Califor@@ 10
Erdo@@ 10
Ul@@ 10
acces@@ 10
alley 10
ario 10
asse@@ 10
aties 10
ationary 10
detail@@ 10
duce 10
enab@@ 10
fficient 10
illion 10
imple@@ 10
inequ@@ 10
melt@@ 10
poly 10
raf 10
resh 10
resul@@ 10
rus 10
span 10
thirds 10
tite 10
xity 10
Asia-@@ 9
Cali@@ 9
Church@@ 9
Ever@@ 9
Kru@@ 9
Mean@@ 9
deem@@ 9
diabe@@ 9
effor@@ 9
eks 9
ela 9
essor 9
ilibrium 9
illance 9
itude 9
mono@@ 9
para@@ 9
plat@@ 9
porary 9
promis@@ 9
reauc@@ 9
sched@@ 9
selves 9
symbo@@ 9
timately 9
tten 9
urg@@ 9
vacu@@ 9
whel@@ 9
š@@ 9
Commit@@ 8
Four@@ 8
KY@@ 8
Shan@@ 8
Whe@@ 8
change-rate 8
contr@@ 8
doz@@ 8
ee@@ 8
entre@@ 8
explic@@ 8
gain@@ 8
house-@@ 8
ior@@ 8
iso@@ 8
large@@ 8
lear 8
minent 8
pment 8
protection@@ 8
reco@@ 8
sein 8
sels 8
technolo@@ 8
thous@@ 8
vis 8
west@@ 8
zu@@ 8
á 8
œ@@ 8
ş@@ 8
@ 7
Iraq@@ 7
Krem@@ 7
Treat@@ 7
acti@@ 7
addafi 7
agger@@ 7
aise 7
alternati@@ 7
atol@@ 7
benef@@ 7
cei@@ 7
cipl@@ 7
coni 7
deed 7
dispensable 7
doubtedly 7
dures 7
estig@@ 7
fea@@ 7
idelines 7
igh 7
ilibri@@ 7
iop@@ 7
mist 7
mists 7
offici@@ 7
resili@@ 7
rote 7
subsi@@ 7
sud@@ 7
therhood 7
till 7
umul@@ 7
Á@@ 7
ğ@@ 7
Beij@@ 6
Bla@@ 6
Franç@@ 6
Hit@@ 6
ING 6
LIN 6
Republic@@ 6
With@@ 6
Yugosla@@ 6
appa@@ 6
ativity 6
avid 6
daries 6
dev 6
dholders 6
did@@ 6
ept@@ 6
fossi@@ 6
gge@@ 6
him@@ 6
licit 6
liff 6
moil 6
monetary-@@ 6
nb@@ 6
restri@@ 6
senti@@ 6
soph@@ 6
straight@@ 6
targe@@ 6
vements 6
vil-@@ 6
ō@@ 6
‑ 6
Ahmad@@ 5
Brus@@ 5
Dut@@ 5
Ebol@@ 5
Eg@@ 5
Harv@@ 5
NGTON 5
Palest@@ 5
Sever@@ 5
Squ@@ 5
Wash@@ 5
Wom@@ 5
Xi@@ 5
adic@@ 5
allen 5
dispens@@ 5
ece 5
erb@@ 5
fragment@@ 5
gy-@@ 5
inej@@ 5
kra@@ 5
ommunic@@ 5
percep@@ 5
ply-@@ 5
sust@@ 5
themati@@ 5
tisan 5
tol@@ 5
velop@@ 5
š 5
ū@@ 5
˚ 5
Abo@@ 4
Balk@@ 4
Goog@@ 4
Janu@@ 4
Leh@@ 4
Vene@@ 4
Vladi@@ 4
acific 4
astri@@ 4
bigu@@ 4
cht 4
declin@@ 4
distri@@ 4
ectious 4
eva 4
foli@@ 4
gman 4
iary 4
immedi@@ 4
indi@@ 4
ineteen@@ 4
insigh@@ 4
istic@@ 4
jec@@ 4
numb@@ 4
olutionary 4
rific@@ 4
territ@@ 4
thermore 4
tware 4
 4
Á 4
ö 4
ø@@ 4
č@@ 4
ę@@ 4
ş 4
Š@@ 4
ε@@ 4
₂ 4
™ 4
* 3
Apri@@ 3
Chá@@ 3
DEL@@ 3
Fukush@@ 3
Hezbol@@ 3
Lis@@ 3
Never@@ 3
PRI@@ 3
Premi@@ 3
Shang@@ 3
Thak@@ 3
Ukra@@ 3
arios 3
atest 3
benefic@@ 3
col 3
compet@@ 3
difficul@@ 3
exces@@ 3
expend@@ 3
genu@@ 3
greenhouse-@@ 3
haps 3
ief 3
implement@@ 3
integ@@ 3
locaust 3
mingly 3
opar@@ 3
periph@@ 3
posedly 3
reland 3
requi@@ 3
tee 3
throughs 3
thusi@@ 3
tise 3
usin@@ 3
vored 3
´ 3
Ö 3
ë@@ 3
î@@ 3
č 3
ē 3
‎ 3
⁰ 3
Ano@@ 2
Berlus@@ 2
Braz@@ 2
Cair@@ 2
Declar@@ 2
Erdoğ@@ 2
Febru@@ 2
HI 2
Israeli@@ 2
Leban@@ 2
MAD@@ 2
Maastri@@ 2
OEC@@ 2
ORK 2
Pak@@ 2
Polic@@ 2
Sadd@@ 2
Swit@@ 2
Switzer@@ 2
`@@ 2
adily 2
atin 2
atlantic 2
attitu@@ 2
aul 2
aust 2
chall@@ 2
conom@@ 2
consider@@ 2
crisi@@ 2
decl@@ 2
degre@@ 2
dends 2
esn 2
exper@@ 2
experi@@ 2
fluc@@ 2
foresee@@ 2
grav@@ 2
iddle 2
illary 2
itures 2
lihoods 2
ministr@@ 2
neighb@@ 2
occu@@ 2
oners 2
openha@@ 2
phe 2
poor@@ 2
populi@@ 2
refuge@@ 2
risis 2
shif@@ 2
sumptions 2
tonom@@ 2
unist 2
vern@@ 2
vernight 2
± 2
Ã@@ 2
É 2
Î@@ 2
Ó@@ 2
Ö@@ 2
Ü@@ 2
à-@@ 2
â@@ 2
å 2
ó 2
õ 2
ú 2
ı@@ 2
ű@@ 2
Ž@@ 2
市 2
= 1
Aben@@ 1
BERK@@ 1
Bagh@@ 1
Bernan@@ 1
Camer@@ 1
Cath@@ 1
Copenha@@ 1
Cyp@@ 1
Dragh@@ 1
Face@@ 1
Gazpro@@ 1
Gord@@ 1
IJ@@ 1
Infra@@ 1
Ital@@ 1
Jerusal@@ 1
Like@@ 1
Mosco@@ 1
Mushar@@ 1
Musli@@ 1
Netany@@ 1
Nether@@ 1
Octo@@ 1
PRIN@@ 1
Policy@@ 1
Rese@@ 1
Sub-@@ 1
Treas@@ 1
VEN 1
WAS@@ 1
WASHI@@ 1
Yelt@@ 1
ahu 1
ailand 1
akia 1
ande 1
avail@@ 1
beit 1
busin@@ 1
certain@@ 1
citiz@@ 1
comed 1
comings 1
current-@@ 1
diffic@@ 1
empha@@ 1
erve 1
ext 1
ffic 1
happen@@ 1
kozy 1
lus@@ 1
ople 1
patter@@ 1
poore@@ 1
prises 1
prov@@ 1
rac 1
ranean 1
reness 1
staf@@ 1
stead 1
tim 1
tob@@ 1
tright 1
verely 1
vern 1
vis-@@ 1
volati@@ 1
willing@@ 1
¼ 1
Å@@ 1
å@@ 1
è 1
í 1
ă@@ 1
Č@@ 1
ğ 1
İ@@ 1
ł 1
ő 1
ȃ@@ 1
ș@@ 1
ứ@@ 1
≤ 1
城 1
城@@ 1
％ 1
madeupword0000 0
madeupword0001 0
madeupword0002 0
madeupword0003 0
madeupword0004 0
madeupword0005 0
