的 316149
， 219301
。 184731
在 61411
和 60459
— 48551
是 48434
了 46206
、 29059
也 22875
但 21587
对 20254
而 19751
将 19370
（ 19259
） 19221
美国 18779
国家 18037
这 17246
“ 16928
” 16738
中 15691
经济 15618
年 15499
一个 14712
不 14093
有 13971
都 13899
我们 13831
会 12808
并 12694
他们 12530
中国 12363
人 12197
与 12087
就 11906
上 11805
为 11704
问题 11210
政府 10975
可能 10960
其 10934
更 10634
欧洲 10500
可以 10392
到 10389
所 9707
这些 9637
被 9614
没有 9353
他 9225
地 8911
让 8332
已经 8291
% 8197
全球 8140
政治 8118
从 7797
需要 7779
： 7666
它 7636
增长 7629
以及 7577
· 7468
政策 7422
以 7374
如果 7315
世界 7257
其他 7110
新 6933
来 6910
这一 6885
必须 6724
因为 6612
欧盟 6392
还 6256
; 6210
但是 6116
应该 6073
能 5940
要 5659
市场 5637
下 5613
多 5595
社会 5551
于 5536
� 5509
它们 5506
不是 5495
这样 5409
因此 5400
或 5362
？ 5191
后 5176
最 5168
时 5116
通过 5108
； 5016
支持 5014
投资 5011
发展 4966
地区 4896
我 4829
着 4804
认为 4730
成为 4547
国际 4521
影响 4505
银行 4420
危机 4380
月 4370
重要 4367
提供 4298
包括 4282
这个 4235
自己 4203
尽管 4187
比 4180
进行 4149
导致 4126
所有 4113
人们 4104
许多 4100
开始 4084
目标 4057
就是 4053
总统 4048
大 4040
无法 4031
计划 4029
却 4025
者 4013
债务 4002
改革 3969
一@@ 3963
情况 3956
正在 3938
实现 3932
现在 3928
这种 3885
能够 3860
增加 3855
向 3845
事实上 3786
该 3764
前 3695
把 3667
俄罗斯 3666
给 3666
带来 3662
英国 3638
很 3612
日本 3575
说 3544
一些 3543
公司 3522
. 3514
主要 3485
& 3447
一 3438
性 3426
未来 3425
不@@ 3408
获得 3406
印度 3405
德国 3382
由 3371
以色列 3307
等 3294
要求 3290
风险 3290
则 3276
民主 3242
伊朗 3238
方面 3237
发生 3227
结果 3222
领导人 3186
安全 3149
那些 3142
之间 3135
机构 3098
作为 3059
用 3057
存在 3001
任何 2993
那么 2992
同时 2966
解决 2957
金融 2946
组织 2939
20 2927
如此 2922
一种 2921
长期 2902
高 2892
建立 2871
造成 2858
使 2856
甚至 2852
们 2844
可 2829
持续 2829
特别 2827
当 2823
不会 2818
过去 2813
更加 2802
又 2794
- 2789
最近 2766
货币 2739
成功 2737
并且 2723
而且 2721
目前 2711
企业 2677
技术 2669
稳定 2660
出现 2658
战争 2641
此外 2634
做 2623
个 2617
国 2613
只有 2605
amp 2603
关系 2580
出 2575
大@@ 2571
收入 2570
比如 2567
产生 2557
像 2557
如今 2551
世纪 2546
国内 2538
行动 2536
1 2528
工作 2515
对于 2504
面临 2502
法国 2495
挑战 2488
一直 2487
不能 2478
能力 2472
欧元区 2459
决定 2451
继续 2450
希望 2449
得到 2444
意味着 2429
仍 2420
如何 2417
研究 2413
希腊 2395
同样 2390
采取 2378
实施 2350
教育 2349
得 2347
贸易 2338
GDP 2320
选择 2319
不同 2312
西方 2308
措施 2303
之 2297
协议 2290
还是 2274
似乎 2273
表明 2273
生活 2271
最终 2269
来说 2261
原因 2256
环境 2250
威胁 2245
合作 2241
利益 2240
什么 2236
财政 2234
拥有 2230
以来 2219
资本 2217
提高 2212
行为 2201
其中 2199
下降 2191
严重 2188
作用 2169
巨大 2160
已 2156
方式 2140
选举 2138
为了 2134
成本 2133
亚洲 2122
或者 2122
使用 2116
战略 2116
过 2114
》 2111
《 2109
你 2104
接受 2102
历史 2099
奥巴马 2080
来自 2073
2 2072
时间 2069
里 2066
无@@ 2061
是否 2060
机会 2053
去 2048
水平 2045
制度 2044
资产 2043
减少 2035
价格 2028
能源 2012
一样 2010
改变 2009
承诺 2006
由于 2004
自由 1994
美元 1992
受到 1991
保护 1990
5 1986
人口 1982
各国 1976
从而 1971
冲突 1962
控制 1953
降低 1951
随着 1948
仍然 1946
需求 1944
低 1941
利率 1935
时候 1930
经济体 1911
伊拉克 1906
和平 1903
几乎 1898
有效 1898
好 1896
资金 1896
系统 1893
真正 1891
欧元 1883
当然 1873
叙利亚 1861
年代 1861
及 1854
移民 1853
即使 1852
虽然 1847
观点 1826
成员国 1824
谈判 1822
项目 1809
内 1808
之@@ 1796
还有 1795
也许 1794
再 1790
基础 1786
权力 1784
考虑 1781
因素 1778
那样 1777
完全 1772
类似 1763
确保 1759
提出 1754
伊斯兰 1752
3 1749
联盟 1746
变得 1742
变化 1740
某些 1740
一点 1725
体系 1722
化 1721
占 1718
才 1718
地方 1717
帮助 1716
援助 1709
大部分 1703
部门 1689
超过 1687
自身 1683
力量 1679
一次 1677
进一步 1674
不断 1666
程度 1660
支出 1655
亿美元 1650
重新 1650
最大 1641
领导 1640
反对 1636
只是 1636
领域 1634
非洲 1625
做出 1621
越来越 1614
她 1610
资源 1610
, 1606
最后 1605
非常 1600
联合国 1595
大量 1592
具有 1588
创造 1588
另 1584
服务 1576
过程 1570
今天 1564
当前 1563
监管 1563
这是 1562
达到 1553
刺激 1550
模式 1550
石油 1546
方案 1542
出口 1541
相反 1540
限制 1539
人民 1532
关注 1530
知道 1528
努力 1527
管理 1527
主义 1524
很多 1520
关于 1518
家庭 1512
只 1509
而是 1507
表现 1505
价值 1503
共同 1502
改善 1500
公共 1499
想 1497
方法 1495
保持 1492
的话 1491
如 1488
10 1486
关键 1485
法律 1485
不仅 1475
在于 1471
地位 1470
结束 1467
及其 1449
那 1449
非 1445
气候变化 1444
贷款 1443
起 1441
利用 1432
委员会 1432
事件 1429
美联储 1427
首先 1426
整个 1424
民众 1424
两个 1420
应对 1413
维持 1408
之后 1407
危险 1407
至少 1407
即 1406
活动 1405
取得 1401
就业 1396
一场 1393
传统 1391
全世界 1390
日 1390
压力 1389
人@@ 1386
将会 1386
投资者 1385
相对 1383
公民 1382
私人 1382
正 1380
运动 1376
条件 1366
欧洲央行 1365
埃及 1364
数据 1362
自 1361
上述 1358
大规模 1358
消费 1355
6 1354
有@@ 1352
军事 1348
中@@ 1347
现实 1346
mdash 1345
人类 1345
发展中国家 1345
通胀 1345
新兴 1344
7 1341
破坏 1339
阿拉伯 1337
显然 1336
债券 1334
4 1328
央行 1322
时代 1322
2008 1316
直接 1314
推动 1309
基础设施 1305
发现 1303
尤其 1302
土耳其 1301
穆斯林 1301
平衡 1298
规则 1297
才能 1295
S@@ 1293
机制 1293
会议 1292
责任 1290
形成 1288
上升 1281
参与 1280
斯 1277
与此同时 1274
制定 1273
状况 1273
避免 1273
中东 1267
不再 1264
令人 1262
根据 1256
依然 1253
金融危机 1253
指出 1250
公众 1249
创新 1249
或许 1248
竞争 1245
经济学家 1245
所谓 1244
健康 1243
错误 1243
试图 1241
一项 1240
尔 1240
自@@ 1240
政权 1231
之前 1229
报告 1222
贫困 1222
担心 1220
信息 1219
扩大 1219
劳动力 1218
巴基斯坦 1215
文化 1215
繁荣 1215
M@@ 1210
失败 1210
部分 1203
官员 1198
预算 1196
认识 1194
内部 1193
之一 1189
事实 1189
9 1188
进步 1186
高@@ 1185
陷入 1184
相关 1183
革命 1183
意大利 1182
标准 1177
进入 1176
独立 1172
实际 1167
唯一 1165
城市 1165
德 1165
规模 1159
生产 1158
后果 1156
起来 1155
巴勒斯坦 1153
今年 1152
多@@ 1149
受 1146
基本 1144
代表 1138
8 1137
去年 1135
引发 1135
更好 1135
每年 1135
相信 1135
较 1134
个人 1133
拉@@ 1133
融资 1133
愿意 1129
解释 1129
达成 1129
000 1125
普京 1124
结构 1124
选民 1122
证明 1121
子 1120
承认 1120
IMF 1117
重大 1116
削减 1114
强大 1114
然而 1113
理解 1113
日益 1110
力 1104
总理 1100
爆发 1098
30 1095
权利 1095
十年 1094
平等 1094
理由 1089
手段 1088
领袖 1087
P@@ 1086
上@@ 1084
全球化 1083
复苏 1083
只能 1082
更为 1082
暴力 1081
条约 1081
近 1079
明确 1076
用于 1075
核心 1074
两@@ 1069
名 1066
时期 1065
儿童 1061
调整 1061
a 1060
阿富汗 1060
地@@ 1055
缺乏 1055
产品 1054
正如 1054
巴西 1053
乌克兰 1052
而言 1049
允许 1046
吗 1045
点 1043
讨论 1043
范围 1040
反应 1037
基金 1037
进程 1037
难民 1037
间 1035
成 1034
下@@ 1033
损失 1033
阻止 1030
预测 1030
令 1028
发达国家 1028
拒绝 1027
很大 1025
视为 1024
曾 1021
加入 1020
经历 1020
法 1019
宗教 1015
根本 1013
容易 1012
权 1012
干预 1010
针对 1009
十分 1007
科学 1007
事 1004
钱 1004
不管 1003
税收 1000
一位 999
过度 998
主权 995
货币政策 995
实际上 994
联系 992
医疗 991
财富 991
因 990
应当 990
衰退 990
面对 990
正确 987
当时 986
数量 986
赤字 984
50 983
一切 981
反映 981
广泛 981
迅速 981
宣布 980
有关 979
韩国 979
新@@ 975
目的 973
促进 971
并非 971
量 971
正是 970
小 968
准备 964
出@@ 964
且 962
意义 961
布什 960
成员 960
大多数 959
可@@ 958
原则 957
反 955
呢 953
相当 952
看到 949
足够 946
特 944
约 944
必要 942
外交 940
家 939
B@@ 937
quot 937
利@@ 935
显示 935
代价 934
通常 934
保证 932
趋势 932
重@@ 930
工人 929
排放 929
而@@ 929
看 928
不可 927
好处 925
s 924
派 924
腐败 922
这场 922
e@@ 921
复杂 920
感到 914
发@@ 913
气候 913
e 909
一致 909
行业 909
仅仅 906
失去 905
R@@ 902
更大 900
依赖 899
往往 899
积极 899
期间 898
该国 896
女性 895
是因为 894
预期 894
商品 893
紧缩 890
开放 889
引起 889
形式 889
11 887
外国 887
潜在 887
短期 885
确实 881
数字 880
治理 880
宪法 879
疾病 879
军队 878
鼓励 878
崩溃 877
建设 877
斯@@ 877
赢得 876
大学 874
西班牙 873
角色 873
12 872
基于 871
曾经 871
交易 870
拉 870
有所 870
一部分 869
承担 869
亿 868
媒体 867
决策者 863
极端 863
党 858
完成 858
实力 858
效果 857
处于 856
框架 854
这@@ 853
决策 852
寻求 852
c@@ 851
态度 851
C@@ 850
s@@ 849
大幅 849
政党 847
有助于 847
经常 846
t@@ 844
储蓄 844
工具 844
立场 844
建议 843
即便 841
确定 841
反@@ 839
汇率 839
G@@ 838
小@@ 838
事情 836
加强 836
方 835
2010 833
成立 830
至 829
评估 828
率 827
简单 826
网络 825
支付 824
苏联 824
行 824
分@@ 823
式 821
几个 820
其@@ 819
转移 818
朝鲜 817
马@@ 817
三@@ 812
开发 812
人权 811
有些 811
i@@ 809
防止 809
优势 808
找到 807
毕竟 807
为什么 805
理论 804
生产率 804
袭击 804
主席 803
经济学 802
难以 802
任务 800
强调 799
工资 798
长 798
比例 797
伦敦 795
快速 795
议会 795
中心 794
大约 794
i 793
只要 792
当局 792
集团 792
E@@ 791
多数 791
肯定 791
明显 790
道德 789
每 788
其实 787
此 787
同@@ 786
同意 784
统治 783
遏制 781
困难 780
购买 780
再次 779
本身 779
类 778
核武器 777
15 776
动荡 773
国际货币基金组织 772
除了 771
崛起 769
影响力 769
使得 768
办法 768
头 768
信心 767
处理 767
治疗 767
退出 767
D@@ 765
东西 765
恢复 765
最新 765
d@@ 764
德@@ 764
开@@ 763
一起 762
例子 762
克 762
效率 762
竞争力 762
巴@@ 761
不到 760
区 759
外部 759
思想 759
恶化 759
l@@ 758
执行 758
追求 757
公开 755
期 755
表示 755
水 754
经验 754
商业 753
金融市场 753
打击 752
纽约 752
逐渐 751
之外 750
墨西哥 749
时@@ 749
一定 748
2009 746
国@@ 746
度 746
放弃 744
可能性 742
路 742
灾难 741
阿@@ 741
A@@ 740
消费者 739
转变 738
T@@ 736
举行 736
死亡 736
/ 735
p@@ 735
十@@ 735
应 734
西@@ 734
H@@ 732
特朗普 732
俄国 731
燃料 731
削弱 730
多年 730
农业 729
卡@@ 729
武器 729
强化 728
# 727
L@@ 727
尔@@ 727
满足 726
统一 725
前景 724
0 721
想要 721
失业 718
现代 717
过@@ 717
解决方案 715
万 714
合理 714
制造 713
补贴 713
扩张 712
达 712
坚持 710
有人 710
转型 710
N@@ 709
不过 709
90 708
b@@ 708
负责 708
贬值 708
天然气 707
证据 706
70 704
60 703
前@@ 703
民族 703
速度 703
失业率 699
相@@ 699
意识 698
核 698
策略 697
受@@ 696
峰会 696
出来 695
各 694
全面 693
F@@ 692
心@@ 692
打@@ 691
集中 688
北约 687
外 686
40 685
以上 684
知识 684
m@@ 683
不足 683
80 682
规定 682
妇女 681
对@@ 681
现象 681
税 681
一年 680
遭到 680
非@@ 680
情绪 679
特@@ 679
现有 679
几年 678
平均 678
所有人 678
不幸 676
之中 676
例如 675
道 675
以@@ 674
既 674
不但 672
恐怖主义 672
生@@ 671
进展 670
海@@ 668
h@@ 667
宽松 667
本 667
势力 666
常常 666
下跌 665
局面 665
信任 664
做法 663
政客 662
o 661
分裂 661
了解 660
州 660
利 659
水@@ 659
对此 658
2015 657
手 657
障碍 657
人民币 656
生命 656
专家 655
加剧 655
负担 654
公@@ 653
2012 652
制 652
年@@ 652
并未 652
无 652
清楚 652
走 652
学生 651
a@@ 650
执政 650
er@@ 649
争论 649
几十年 649
信用 646
充分 646
哈马斯 645
群体 645
美@@ 644
25 643
体 643
流动性 643
碳 643
候选人 642
状态 642
调查 642
道路 642
面 642
区域 641
所@@ 641
担忧 640
2011 639
双方 639
收益 639
有着 639
一系列 638
批评 638
分析 637
感 637
投票 637
斗争 637
线 637
分配 636
本国 636
糟糕 636
协定 634
泡沫 634
谁 634
远 634
利润 633
吸引 633
需 633
本@@ 632
总是 631
胜利 629
邻国 629
公平 628
安@@ 628
即将 626
秩序 626
2013 625
增长率 625
发自 624
处 622
迫使 622
怀疑 621
没 621
冲击 620
加@@ 620
东@@ 619
设计 619
巴黎 618
效应 617
福利 616
发达 615
所以 615
少 613
一体化 612
不仅仅 612
提升 612
黎巴嫩 612
入 610
各种 610
人员 609
外交政策 609
万@@ 608
后者 608
精神 608
最高 607
天@@ 606
永远 606
位 605
停止 604
共和党 604
精英 602
至关重要 601
预计 601
成@@ 600
几@@ 599
当@@ 599
组成 599
业 598
孩子 598
很快 598
民粹主义 598
显著 597
多少 596
好@@ 596
局 595
年轻人 595
流 595
极大 594
激励 593
贡献 593
太 592
左右 592
2014 591
欧洲人 591
罗@@ 591
储备 590
否则 590
生 590
u@@ 589
世界银行 589
得@@ 589
事务 588
其它 588
重组 588
技能 587
官方 586
生物 586
重要性 586
教训 585
还要 585
160 584
这方面 584
远远 584
夫 583
2007 580
值得 580
呼吁 580
盟友 580
空间 580
人士 579
o@@ 575
克@@ 575
岁 575
沙特 575
共识 574
取决于 574
四@@ 574
某种 574
相比 574
行@@ 574
投入 573
直到 573
食品 572
体制 571
在@@ 571
工业 571
总 571
方向 570
阶段 570
利比亚 569
随后 569
团结 568
无论 566
用@@ 566
花 566
制裁 564
天 564
符合 564
身@@ 563
一旦 562
为何 562
日@@ 562
为@@ 561
国会 561
两国 560
债权人 560
维@@ 560
这次 560
任 559
依靠 559
比@@ 559
称为 559
长@@ 559
回报 558
％ 558
学 556
寻找 556
当今 556
最为 556
结构性 556
in@@ 554
华盛顿 554
深@@ 554
联邦 554
伊斯兰教 552
变革 552
支持者 552
消除 552
萨@@ 552
这项 552
除非 552
每个 551
转@@ 551
一份 550
er 548
内@@ 548
全@@ 547
r@@ 546
变成 546
文@@ 546
破产 546
萧条 546
后@@ 545
自然 545
g@@ 544
不得不 544
大国 544
痛苦 544
真实 544
哈@@ 543
民族主义 543
看来 542
摆脱 541
停滞 540
意 540
方针 540
大选 539
ar@@ 538
从未 538
型 538
主义者 537
国民 537
土地 537
经济@@ 537
良好 537
三个 536
伤害 535
增强 535
当选 535
身份 535
分歧 534
地球 534
旨在 534
or@@ 533
批准 533
K@@ 532
彻底 532
正式 532
一半 531
具体 531
老@@ 531
阿根廷 531
快 529
金 529
y 528
体现 528
互联网 527
实行 527
死 527
发 526
年前 526
想象 526
起到 526
心 525
遭受 525
单一 524
头@@ 524
推进 524
波兰 524
要么 523
t 522
被迫 522
采用 522
尼@@ 521
在内 520
正@@ 519
那里 519
an 518
学校 517
警告 517
难@@ 516
领土 516
机 515
转向 515
定 514
当地 514
的确 514
连 514
持有 513
最好 512
核@@ 512
得以 511
差异 510
产业 509
以前 509
众多 509
100 508
禁止 508
接近 507
最佳 506
比较 506
如@@ 505
联合 505
分 504
埃 504
数 504
药物 504
一条 503
仅 503
供给 503
种 501
阻碍 501
有限 500
流动 500
指责 499
攻击 499
概念 499
然后 499
科@@ 498
I@@ 497
al 497
尼 497
差距 497
最@@ 497
构成 497
程序 497
en@@ 496
低于 495
数@@ 495
难 495
信贷 494
强烈 494
提振 494
纳@@ 494
普遍 493
脆弱 493
违约 493
未能 492
变暖 491
讲 491
论 491
质疑 491
分子 490
混乱 490
付出 489
级 489
层面 488
布@@ 488
开支 488
条 488
站 488
n@@ 487
二@@ 487
二氧化碳 487
合法性 487
真的 487
美国@@ 487
社区 486
美 486
加沙 485
发挥 485
取代 485
据 485
气 485
政治家 484
中央银行 483
军 483
放@@ 482
民主党 482
资本主义 482
动 481
协调 481
爱尔兰 481
f@@ 480
对抗 480
平@@ 480
不确定性 479
越 479
通货膨胀 479
at@@ 478
合@@ 478
基因 478
不愿 477
反对派 477
取消 477
同 477
左翼 477
缺少 477
二战 476
未 476
说法 476
马 476
什叶派 475
告诉 475
富裕 475
进口 475
量化 475
发表 474
另外 474
逊尼派 474
k@@ 473
房地产 473
相当于 473
显而易见 472
有时 472
背景 472
意愿 471
有利于 471
称 471
重建 471
es 470
明白 470
质量 470
放缓 469
五@@ 468
安 468
手@@ 468
波动 468
盈余 468
适应 468
里@@ 468
各@@ 467
局势 467
成就 467
两年 466
倍 466
竞选 466
O@@ 465
an@@ 464
安排 464
答案 464
伙伴 463
失@@ 463
团体 462
病 462
怎样 461
法@@ 461
这里 461
… 460
争议 460
学习 460
定义 460
属于 460
五年 459
可靠 459
会@@ 458
金融机构 458
总体 457
次 457
2000 456
事@@ 456
回到 456
外@@ 456
对话 456
思维 455
潜力 455
re@@ 454
缓慢 454
2005 453
妥协 453
－ 453
) 452
on 452
更@@ 452
2@@ 451
假设 451
开 451
拯救 451
穷人 451
两 450
物 450
信号 449
起@@ 449
车 449
保险 448
定@@ 448
种族 448
金@@ 448
倾向 447
极@@ 447
界 446
工程 445
巴勒斯坦人 445
走向 444
除 444
J@@ 443
万亿美元 443
其次 443
文 443
签署 443
语 443
( 442
产量 442
热@@ 442
替代 441
进 441
W@@ 440
估计 440
便 440
内容 440
地缘 440
安倍 440
强 440
普@@ 439
贫穷 439
1@@ 438
家@@ 438
缅甸 438
致力于 438
角度 438
太@@ 437
很难 437
明 437
通@@ 437
遭遇 437
传@@ 436
克服 436
毫无疑问 436
理念 436
管制 436
严格 435
多边 435
给予 435
风@@ 435
全部 434
担任 434
加 433
犹太人 432
由此 432
缺陷 432
尝试 431
走@@ 431
重点 431
生存 430
on@@ 429
作 429
加速 429
时刻 429
杠杆 429
冷战 428
南@@ 428
很少 428
名@@ 427
困境 427
指标 427
明@@ 427
自我 427
普通 426
沙特阿拉伯 426
激进 426
宣称 425
访问 425
作出 424
主@@ 423
亚@@ 423
欧盟委员会 423
瓦@@ 422
空@@ 422
部 422
启动 421
大陆 421
带 421
忽视 421
感觉 421
汽车 421
身 421
这么 421
推@@ 420
科学家 420
前所未有 419
变@@ 419
日程 419
立法 419
交@@ 418
供应 418
充满 418
奥@@ 418
油价 418
进@@ 418
部长 418
乐观 417
值 417
员 417
背后 417
少数 416
极 416
特征 416
衡量 416
克林顿 415
正常 415
加上 414
场 413
恐惧 413
武装 413
约束 413
从@@ 412
扮演 412
越@@ 412
ri@@ 411
掌握 411
收@@ 411
升值 410
紧张 410
of 409
展开 409
额 409
w@@ 408
发动 408
损害 408
构建 408
火@@ 408
看起来 408
伊@@ 407
千@@ 407
年轻 407
年间 407
战 407
监督 407
基@@ 406
然 406
理想 406
要@@ 406
言 406
商 405
经济危机 405
说明 405
占据 404
宏观经济 404
疫苗 404
边境 404
人数 403
辩论 403
21 402
指数 402
2001 401
民@@ 401
能否 401
党派 400
实体 400
帝国 400
思考 400
总@@ 399
意识形态 399
鉴于 399
以后 398
究竟 398
k 397
两大 397
到来 397
早期 397
成果 396
产出 395
对手 395
足以 395
C 394
之上 394
巨额 394
负 394
主张 393
农民 393
抵制 393
持 393
描述 393
第二 393
动@@ 392
动力 392
学@@ 392
表达 392
记录 392
负债表 392
不要 391
引入 391
测试 391
英@@ 391
部队 391
上涨 390
内战 390
旧 390
格@@ 390
此前 390
人物 389
包含 389
喜欢 389
岗位 389
深刻 389
2006 388
共产主义 388
具备 388
形势 388
格 388
价值观 387
军@@ 387
化石 387
每@@ 387
矛盾 387
端 387
绿色 387
农村 386
发布 386
周期 386
第一个 386
研发 385
价 384
口@@ 384
大型 384
抗议 384
财政政策 384
y@@ 383
回@@ 383
国外 383
患者 383
罗 383
账户 383
信 382
整体 382
行长 382
于是 381
作@@ 381
占领 381
抑制 381
按照 381
en 380
中产阶级 380
住 380
净 380
制造业 380
医生 380
公正 379
法案 379
温和 379
借贷 378
光@@ 378
推翻 378
一般 377
北@@ 377
奇怪 377
报道 377
药 377
集体 377
基地 376
巩固 376
庞大 376
接@@ 376
现状 376
用来 376
可行 375
波@@ 375
v@@ 374
两种 374
低@@ 374
促使 374
出于 374
国际@@ 374
提@@ 374
股市 374
中国政府 373
其他人 373
右翼 373
委内瑞拉 373
捍卫 373
与其 372
受害者 372
边界 372
高达 372
500 371
未@@ 371
股票 371
尊重 370
错 370
阿萨德 370
香港 370
立@@ 369
著名 369
释放 369
问 369
愤怒 368
火 368
病@@ 368
不可避免 367
职 367
采取行动 367
高度 367
古@@ 366
合法 366
奥 366
官僚 366
电@@ 366
远@@ 366
意见 365
月份 365
流入 365
现代化 365
目前为止 365
索@@ 365
计算 365
主导 364
市 364
莫@@ 364
入侵 363
参加 363
推行 363
故事 363
黑@@ 363
跟 362
达@@ 362
重 362
ti@@ 361
一名 361
发行 361
回归 361
尽管如此 361
无疑 361
比率 361
负债 361
靠 361
传播 360
决心 360
原@@ 360
回 360
大西洋 360
通缩 360
不满 359
以此 359
第三 359
卫生 358
跨 358
却是 357
掉 357
相互 357
首次 357
下去 356
倒 356
受益 356
森林 356
第一次 356
结论 356
美国政府 356
姆 355
特殊 355
落 355
专@@ 354
适用 354
镇压 354
å 353
一下 353
埃@@ 353
流@@ 353
位于 352
均 352
全国 351
战@@ 351
新闻 351
步 351
荷兰 351
资格 351
li@@ 350
不够 350
义务 350
工 350
条款 350
纳 350
色 350
队 350
诸多 349
超越 349
2004 348
am@@ 348
举措 348
书 348
回应 348
承受 348
早已 348
曼 348
话 348
连@@ 348
澳大利亚 347
之所以 346
方@@ 346
一步 345
北京 345
过于 345
公投 344
政治@@ 344
来源 344
G 343
先@@ 343
刚刚 343
制@@ 343
性@@ 343
手中 343
欢迎 343
观察 343
’ 342
亚 342
幸运 342
看法 342
税率 342
紧密 342
货币联盟 342
那@@ 342
一家 341
应用 341
n 340
以下 340
听 340
孤立 340
此次 340
票 340
维护 340
身上 340
之下 339
涉及 339
见@@ 339
and 338
大大 338
此@@ 338
死@@ 338
洛@@ 338
相同 338
该@@ 338
退休 338
神@@ 337
第@@ 337
费@@ 337
飞@@ 337
ol@@ 336
力@@ 336
复@@ 336
法庭 336
法院 336
疲软 336
默克尔 336
体@@ 335
尚未 335
观念 335
é 334
南非 334
情@@ 334
海 334
费用 334
恐怖分子 333
拉丁美洲 333
公约 332
期望 332
粮食 332
零 332
培训 331
报 331
独裁 331
门 331
面@@ 331
鲁@@ 331
A 330
亲@@ 330
她们 330
居民 330
岛 330
来看 330
法治 330
渴望 330
理性 330
200 329
ation 329
is@@ 329
再@@ 329
操纵 329
令人@@ 328
升级 328
命运 328
对待 328
气体 328
消失 328
激烈 328
自由化 328
al@@ 327
六@@ 327
明智 327
模型 327
相似 327
ad@@ 326
d 326
视 326
19 325
• 325
吸引力 325
有利 325
活力 325
突然 325
艰难 325
首@@ 325
45 324
员工 324
极为 324
气@@ 324
组合 324
18@@ 323
入@@ 323
写 323
南 323
另一方面 323
恐慌 323
牺牲 323
离@@ 323
超@@ 323
任期 322
打破 322
最初 322
纳税人 322
高效 322
平民 321
注意力 321
塔利班 320
摧毁 320
瑞典 320
监管者 320
迹象 320
品 319
整合 319
第一 319
社会@@ 318
能@@ 318
语言 318
¾ 317
各方 317
早 317
离开 317
见 317
言论 317
P 316
忽略 316
来@@ 316
19@@ 315
2003 315
信@@ 315
全球性 315
化@@ 315
司法 315
排除 315
说服 315
透明 315
吉@@ 314
强劲 314
谨慎 314
不平等性 313
声称 313
比方说 313
联@@ 313
h 312
林 312
某种程度 312
理@@ 312
驱动 312
18 311
以便 311
各自 311
指 311
苏@@ 311
项 311
绝对 310
诚然 310
S 309
一国 309
温室 309
绝不 309
人群 308
名义 308
差 308
放在 308
保障 307
列@@ 307
威@@ 307
层 307
巴 307
逻辑 307
一天 306
不足以 306
减轻 306
升高 306
台湾 306
宣传 306
尽@@ 306
想法 306
犯罪 306
1990 305
中期 305
卡 305
只会 305
皮@@ 305
获益 305
议程 305
金融体系 305
做@@ 304
失衡 304
数百万 304
智利 304
毫无 304
获胜 304
情 303
日渐 303
特定 303
门@@ 303
高于 303
动机 302
变 302
言@@ 302
说@@ 302
运作 302
麻烦 302
内塔尼亚胡 301
动物 301
双@@ 301
声 301
所在 301
西 301
el@@ 300
争@@ 300
但@@ 300
协助 300
坏 300
常@@ 300
贝@@ 300
迪@@ 300
东盟 299
参与者 299
教@@ 299
论坛 299
还会 299
3@@ 298
下来 298
廉价 298
森 298
直@@ 298
短缺 298
科技 298
以往 297
灾难性 297
米 297
终于 297
股东 297
减速 296
声明 296
奇 296
小时 296
污染 296
谴责 296
阶层 296
优@@ 295
哥伦比亚 295
士 295
本人 295
二十世纪 294
市场经济 294
无力 294
注意 294
疟疾 294
紧@@ 294
选 294
阵营 294
信誉 293
富有 293
并@@ 293
情形 293
惩罚 293
扭曲 293
拉美 293
指@@ 293
本质 293
选票 293
V@@ 292
平台 292
排@@ 292
白@@ 292
预防 292
领@@ 292
额外 292
习近平 291
享受 291
商@@ 291
或是 291
打 291
支撑 291
海洋 291
症 291
精@@ 291
违反 291
首相 291
ing 290
个体 290
举 290
功能 290
召开 290
干@@ 290
敌人 290
朋友 290
非法 290
世 289
为此 289
消灭 289
纳入 289
词 289
主流 288
事业 288
号 288
实@@ 288
尔多 288
第一@@ 288
细胞 288
经过 288
面前 288
14 287
人均 287
女@@ 287
服务业 287
重塑 287
一套 286
国家@@ 286
图@@ 286
必然 286
新加坡 286
罪 286
设施 286
不少 285
第二个 285
约旦 285
绝大多数 285
代@@ 284
众@@ 284
全 284
每天 284
比重 284
独@@ 284
费 284
那种 284
难以@@ 284
17 283
互@@ 283
困扰 283
尼日利亚 283
巴沙尔 283
常规 283
根源 283
近@@ 283
遵守 283
降@@ 283
雷@@ 283
ar 282
光 282
加拿大 282
劳动 282
多么 282
存@@ 282
审判 282
案 282
理 282
要素 282
主 281
产 281
任命 281
实验 281
导弹 281
干涉 281
伟大 280
伴随 280
保@@ 280
判断 280
武力 280
积累 280
资助 280
ac@@ 279
in 279
万人 279
不可@@ 279
丧失 279
出售 279
前提 279
勒 279
否认 279
外围 279
施@@ 279
第 279
规划 279
ic@@ 278
互相 278
待 278
想@@ 278
指导 278
换句话说 278
明年 278
看@@ 278
真@@ 278
米@@ 278
经营 278
落@@ 278
蒙@@ 278
解@@ 278
记者 278
过渡 278
两者 277
人才 277
可怕 277
客户 277
接着 277
留@@ 277
病人 277
7@@ 276
as@@ 276
共和国 276
副 276
南部 276
博@@ 276
取@@ 276
格鲁吉亚 276
终结 276
住房 275
全新 275
存款 275
脱离 275
13 274
专注 274
伊 274
区别 274
塔 274
托 274
演讲 274
现金 274
被@@ 274
例外 273
印尼 273
口 273
回答 273
届 273
显得 273
知@@ 273
距离 273
做到 272
克里姆林宫 272
半@@ 272
增@@ 272
学者 272
标志 272
潮 272
物质 272
犹太 272
途径 272
顾问 272
争取 271
保留 271
古巴 271
塞@@ 271
抵消 271
机@@ 271
现@@ 271
艾滋病 271
葡萄牙 271
决议 270
劳@@ 270
器 270
缓解 270
胡@@ 270
近期 270
逐步 270
预算赤字 270
16 269
ou@@ 269
僵局 269
初 269
哪些 269
恐怖 269
担保 269
浪费 269
癌症 269
æ 268
偿还 268
千年 268
性质 268
海外 268
us@@ 267
再生能源 267
帕@@ 267
花@@ 267
八@@ 266
男性 266
职位 266
融合 266
调 266
the 265
中东地区 265
做好 265
印@@ 265
多样性 265
害怕 265
强硬 265
形象 265
文章 265
求@@ 265
立刻 265
预@@ 265
前任 264
对外 264
恶@@ 264
某个 264
犯 264
科索沃 264
紧迫 264
经@@ 264
落后 264
于@@ 263
取 263
坚定 263
季度 263
布鲁塞尔 263
引导 263
总量 263
真主党 263
税@@ 263
自由主义 263
谈 263
8@@ 262
人道主义 262
只不过 262
年度 262
年来 262
指控 262
极端主义 262
注入 262
300 261
东亚 261
俄 261
油 261
突破 261
经 261
至今 261
nbsp 260
不利 260
不必 260
世俗 260
业务 260
准确 260
单@@ 260
发起 260
抵押 260
拿出 260
按 260
文明 260
此类 260
红@@ 260
件 259
塔@@ 259
居@@ 259
消@@ 259
渠道 259
科 259
优先 258
后来 258
工业化 258
当中 258
提议 258
称之为 258
突尼斯 258
致@@ 258
警察 258
过剩 258
运用 258
St@@ 257
U@@ 257
g 257
三年 257
原本 257
周@@ 257
失望 257
完美 257
投@@ 257
放松 257
法官 257
电力 257
苏丹 257
诊断 257
0@@ 256
th@@ 256
三分之一 256
下滑 256
助长 256
和@@ 256
土@@ 256
契约 256
强@@ 256
心理 256
急需 256
改进 256
留下 256
it@@ 255
一方面 255
二十年 255
以外 255
有力 255
煤炭 255
z@@ 254
位置 254
信仰 254
动作 254
复兴 254
底 254
战后 254
早@@ 254
款 254
黄金 254
伙伴关系 253
双边 253
国债 253
归@@ 253
标@@ 253
第二@@ 253
纷纷 253
考验 253
观 253
设立 253
评级 253
鲁 253
35 252
el 252
布 252
罪行 252
认定 252
迪 252
反过来 251
城 251
山@@ 251
已@@ 251
跨国 251
运转 251
ç 250
共享 250
反而 250
大多 250
密@@ 250
抛弃 250
毒@@ 250
设备 250
赋予 250
转化 250
风 250
ur@@ 249
不用说 249
保护主义 249
向@@ 249
应@@ 249
断@@ 249
泰国 249
清晰 249
百@@ 249
补偿 249
解体 249
财政部长 249
丰富 248
兰@@ 248
关@@ 248
可持续性 248
外汇储备 248
山 248
昂贵 248
满@@ 248
然@@ 248
饱受 248
何@@ 247
便是 247
圣@@ 247
太平洋 247
工@@ 247
操作 247
权@@ 247
经合组织 247
那个 247
长时间 247
高级 247
de 246
产能 246
从事 246
像是 246
击 246
抓住 246
排放量 246
接触 246
这位 246
2002 245
和解 245
小组 245
正义 245
清洁 245
省 245
统计 245
诺@@ 245
世界各地 244
工会 244
机器 244
根本性 244
此后 244
深度 244
源 244
牌 244
生产力 244
苏格兰 244
药品 244
养老金 243
合 243
声音 243
异@@ 243
持久 243
沙@@ 243
离 243
部署 243
6@@ 242
ag@@ 242
两次 242
儿 242
冒险 242
加以 242
忧虑 242
末 242
议员 242
邦 242
中有 241
剑桥 241
最低 241
来讲 241
证 241
I 240
一段时间 240
产@@ 240
低估 240
声@@ 240
微@@ 240
息 240
成熟 240
改@@ 240
莱@@ 240
乐@@ 239
亿@@ 239
今后 239
从来 239
怀@@ 239
意@@ 239
步骤 239
爱@@ 239
留在 239
节 239
es@@ 238
七@@ 238
分享 238
垄断 238
大宗 238
所说 238
授权 238
更具 238
步@@ 238
物@@ 238
防@@ 238
一代 237
不了 237
严峻 237
兑现 237
兴趣 237
制定者 237
团 237
境 237
悲剧 237
本地 237
量@@ 237
某 236
毫不 236
民 236
深远 236
清@@ 236
爱 236
统治者 236
越南 236
运行 236
金砖 236
om@@ 235
公共部门 235
大屠杀 235
效 235
机遇 235
林@@ 235
梅@@ 235
欧洲议会 235
目@@ 235
穆巴拉克 235
融入 235
2020 234
T 234
世@@ 234
低收入 234
兰 234
动员 234
包容 234
就@@ 234
更是 234
柏林 234
瓦 234
简言之 234
结合 234
脱@@ 234
致命 234
节@@ 234
觉得 234
财政赤字 234
边缘 234
D 233
企业家 233
出台 233
华@@ 233
受欢迎 233
合适 233
广@@ 233
怎么 233
暴露 233
相 233
私@@ 233
空 233
计@@ 233
讽刺 233
st@@ 232
予以 232
他人 232
凯恩斯 232
分别 232
学院 232
往 232
暂时 232
示威 232
约翰 232
供@@ 231
冲@@ 231
减@@ 231
医院 231
宏观 231
富人 231
维 231
菲@@ 231
软 231
东欧 230
乔治 230
兄弟 230
切@@ 230
商品价格 230
延长 230
望 230
边 230
铁@@ 230
多个 229
好消息 229
这笔 229
ed 228
份额 228
何种 228
合同 228
推迟 228
核计划 228
灵活 228
突@@ 228
经济衰退 228
绝@@ 228
评论 228
前进 227
单位 227
扩散 227
老 227
花费 227
雅@@ 227
中央 226
中间 226
任@@ 226
利息 226
图 226
战斗 226
提 226
流行 226
照@@ 226
看上去 226
金融部门 226
假@@ 225
基金会 225
弗@@ 225
恩 225
恰恰 225
救助 225
破坏性 225
等@@ 225
阿巴斯 225
集@@ 225
领导层 225
依赖于 224
修改 224
减税 224
加大 224
卡梅伦 224
发出 224
合作伙伴 224
命 224
沦为 224
病毒 224
福@@ 224
称@@ 224
获取 224
逆转 224
ch@@ 223
不久前 223
专制 223
军事行动 223
响应 223
哪个 223
幅度 223
性别 223
欧@@ 223
肯尼亚 223
试@@ 223
银行家 223
2030 222
伯@@ 222
关 222
年底 222
循环 222
我@@ 222
救@@ 222
相应 222
眼 222
菲律宾 222
严厉 221
以至于 221
保守 221
军方 221
史 221
强制 221
杜@@ 221
母亲 221
若 221
血@@ 221
赫@@ 221
！ 221
不太可能 220
交通 220
代 220
偏@@ 220
关闭 220
北部 220
医学 220
印象 220
恐怖袭击 220
数十年 220
河 220
认真 220
for 219
充足 219
关税 219
审查 219
属 219
批评者 219
无论是 219
流向 219
伦@@ 218
偿付 218
四个 218
圣战 218
士@@ 218
普 218
歧视 218
电 218
监控 218
着@@ 218
纠正 218
自然资源 218
调@@ 218
倒闭 217
参@@ 217
导向 217
得不到 217
愿景 217
权威 217
毒品 217
物种 217
群众 217
而已 217
自从 217
自由贸易 217
解决问题 217
路@@ 217
较@@ 217
兹 216
别@@ 216
各个 216
教授 216
用户 216
知 216
第三@@ 216
讲话 216
举@@ 215
击@@ 215
只@@ 215
塞尔维亚 215
带@@ 215
开展 215
提到 215
暴跌 215
职业 215
表 215
贸易协定 215
退@@ 215
顿 215
高昂 215
2016 214
共@@ 214
士兵 214
太阳能 214
宣言 214
将来 214
履行 214
当年 214
政 214
残酷 214
球 214
终@@ 214
规范 214
解 214
证券 214
零@@ 214
久 213
促成 213
制约 213
卡扎菲 213
哪里 213
子@@ 213
学家 213
披露 213
百万 213
管@@ 213
自动 213
走上 213
严@@ 212
个人@@ 212
容忍 212
杰@@ 212
深入 212
稳定性 212
算 212
视@@ 212
4@@ 211
亲 211
介入 211
使命 211
公布 211
华 211
反恐 211
完整 211
成长 211
期待 211
波 211
物价 211
难题 211
首席 211
国有企业 210
恰当 210
感染 210
找 210
杀 210
照 210
生产总值 210
看似 210
给出 210
表@@ 210
足@@ 210
轻@@ 210
长期以来 210
随之 210
Al@@ 209
ec@@ 209
ro@@ 209
地带 209
强势 209
快速增长 209
朝 209
莫迪 209
萨 209
议@@ 209
运@@ 209
世界@@ 208
九@@ 208
功@@ 208
博拉 208
处在 208
富 208
将军 208
席位 208
欧 208
游@@ 208
石油价格 208
衰落 208
认可 208
青年 208
东 207
事故 207
实 207
展示 207
战胜 207
百分点 207
监狱 207
紧急 207
虚@@ 207
通 207
剥夺 206
教 206
版 206
甚@@ 206
真相 206
道理 206
陈@@ 206
齐 206
l 205
一大 205
付@@ 205
作物 205
农@@ 205
决定性 205
凯@@ 205
基 205
就业机会 205
总额 205
期@@ 205
看作 205
萨达姆 205
补@@ 205
雇主 205
24 204
il@@ 204
m 204
可谓 204
在政治上 204
屠杀 204
救 204
暴@@ 204
现任 204
等待 204
绝非 204
脑@@ 204
蔓延 204
追@@ 204
透明度 204
主宰 203
估算 203
到@@ 203
塞浦路斯 203
梦想 203
焦点 203
电视 203
研究所 203
野心 203
反对者 202
家族 202
密 202
弱 202
极其 202
索 202
警@@ 202
计 202
试验 202
道@@ 202
专业 201
减排 201
卫生@@ 201
吸收 201
引@@ 201
敦促 201
案例 201
游戏 201
街头 201
重视 201
1980 200
si@@ 200
一边 200
上个月 200
不如 200
传染病 200
侵犯 200
实践 200
富@@ 200
对立 200
抗@@ 200
电脑 200
穆尔西 200
表面 200
车@@ 200
195@@ 199
400 199
ir@@ 199
养 199
包容性 199
敏感 199
没@@ 199
秘密 199
穷国 199
训练 199
1997 198
万美元 198
不论 198
团队 198
大众 198
已有 198
干 198
放 198
电影 198
确认 198
立即 198
英镑 198
et@@ 197
与@@ 197
为例 197
低下 197
低利率 197
先 197
办公室 197
台 197
哥本哈根 197
地说 197
形 197
急剧 197
总需求 197
按揭 197
推出 197
管 197
赫 197
输@@ 197
饥饿 197
j@@ 196
un@@ 196
ä 196
不久 196
之际 196
也门 196
修正 196
兄弟会 196
完善 196
德国人 196
惊@@ 196
房价 196
投资银行 196
拜 196
整@@ 196
注定 196
系统性 196
脱欧 196
设定 196
马上 196
F 195
G20 195
et 195
一件 195
三大 195
审慎 195
弱点 195
托@@ 195
撤军 195
暗@@ 195
类型 195
缺口 195
美国国会 195
英格兰银行 195
质 195
超出 195
食物 195
22 194
他@@ 194
兴@@ 194
兵 194
剂 194
加快 194
医@@ 194
工厂 194
师 194
情景 194
意外 194
施加 194
板 194
消息 194
热情 194
翻@@ 194
艾@@ 194
营养 194
负@@ 194
严肃 193
买@@ 193
人口@@ 193
从中 193
典型 193
危害 193
国务卿 193
大会 193
大概 193
害 193
尚 193
惊人 193
感@@ 193
新兴国家 193
新政府 193
早就 193
智慧 193
盟国 193
签订 193
诸@@ 193
1999 192
两倍 192
关心 192
女孩 192
定价 192
尽 192
联合国安理会 192
股 192
销售 192
首要 192
驻 192
em@@ 191
争端 191
依据 191
分散 191
四分之一 191
好像 191
提醒 191
灾 191
组 191
角度看 191
页岩 191
to 190
俄@@ 190
单 190
压 190
听@@ 190
四年 190
均衡 190
大胆 190
工党 190
掌权 190
沮丧 190
游说 190
素 190
绝望 190
罗马 190
Mar@@ 189
一再 189
丹麦 189
偏好 189
停@@ 189
冷@@ 189
列 189
压制 189
可信 189
对象 189
年初 189
推广 189
残@@ 189
深化 189
片 189
独裁者 189
瑞士 189
盈利 189
缓和 189
补充 189
裁决 189
边@@ 189
院 189
马来西亚 189
共产党 188
准 188
榜样 188
沉@@ 188
覆盖 188
运 188
防御 188
齐@@ 188
业@@ 187
国防 187
愿望 187
扎@@ 187
挽救 187
掩盖 187
星 187
热 187
班 187
理应 187
规@@ 187
让步 187
记忆 187
随@@ 187
27 186
举动 186
交换 186
信念 186
修@@ 186
反弹 186
情报 186
扭转 186
抗生素 186
换取 186
时机 186
条@@ 186
桑@@ 186
油@@ 186
法国人 186
玛@@ 186
眼@@ 186
色@@ 186
起诉 186
那时 186
雷 186
O 185
临时 185
半 185
即@@ 185
吧 185
尽可能 185
强国 185
根 185
煽动 185
销 185
限度 185
势 184
北朝鲜 184
多元化 184
女 184
年龄 184
日元 184
莫斯科 184
萨尔 184
解决办法 184
阻挠 184
隐@@ 184
B 183
and@@ 183
两位 183
依旧 183
先进 183
国王 183
外界 183
定居点 183
居住 183
座 183
查@@ 183
由@@ 183
社会保障 183
禁@@ 183
议题 183
这会 183
霸权 183
ap@@ 182
le 182
交流 182
低迷 182
催生 182
存 182
幕 182
当务之急 182
律师 182
毁 182
民主@@ 182
缩小 182
财务 182
进而 182
逃@@ 182
非政府 182
麦@@ 182
~ 181
动摇 181
因而 181
处@@ 181
巨@@ 181
库 181
抱 181
材料 181
航@@ 181
适合 181
默@@ 181
仇恨 180
到底 180
否决 180
填补 180
多样化 180
开启 180
异 180
混@@ 180
看待 180
看看 180
私有化 180
纳粹 180
预见 180
使@@ 179
例 179
慢 179
漫长 179
玩@@ 179
论@@ 179
证实 179
足 179
遇到 179
阿拉伯人 179
乌@@ 178
乱 178
人为 178
党@@ 178
减 178
因@@ 178
基本上 178
废除 178
建@@ 178
弥补 178
彼此 178
必@@ 178
晚 178
社会主义 178
穆沙拉夫 178
纠纷 178
耶路撒冷 178
轮 178
1998 177
一方 177
划@@ 177
助 177
告@@ 177
地中海 177
坦@@ 177
就要 177
徒 177
投机 177
无论如何 177
日子 177
最有 177
朗德 177
演变 177
点@@ 177
狂热 177
穆@@ 177
股权 177
首脑 177
tion 176
之春 176
互动 176
份子 176
壁垒 176
死刑 176
活 176
滥用 176
申请 176
相互@@ 176
网 176
选项 176
配@@ 176
金融@@ 176
陷阱 176
飙升 176
鱼 176
IC@@ 175
is 175
内贾德 175
善@@ 175
在线 175
地震 175
易@@ 175
法塔赫 175
理事会 175
艰巨 175
赛 175
近年来 175
问@@ 175
间接 175
乃至 174
习惯 174
些 174
借口 174
借款人 174
勒@@ 174
口号 174
幸福 174
库@@ 174
报@@ 174
政变 174
显@@ 174
活@@ 174
深层次 174
祖国 174
署 174
防务 174
霍@@ 174
风暴 174
飞机 174
固定 173
基督教 173
姿态 173
安理会 173
建筑 173
拖累 173
横@@ 173
落实 173
软@@ 173
遗@@ 173
阵线 173
领导力 173
切 172
助@@ 172
匈牙利 172
南欧 172
痛 172
白 172
程 172
突出 172
迄今为止 172
选@@ 172
造@@ 172
ab@@ 171
u 171
卖 171
奥地利 171
差别 171
授予 171
排名 171
有用 171
永@@ 171
激@@ 171
约@@ 171
绝大部分 171
自愿 171
走出 171
一道 170
三十年 170
丑闻 170
任何人 170
前者 170
卖@@ 170
反抗 170
否定 170
建造 170
报纸 170
暗示 170
曼@@ 170
沉重 170
确@@ 170
组成部分 170
血 170
ul@@ 169
专利 169
了@@ 169
企图 169
保守派 169
军事@@ 169
别 169
制药 169
区分 169
发放 169
国际法 169
妨碍 169
市场@@ 169
意图 169
族 169
第三个 169
至于 169
若@@ 169
英国人 169
行政 169
路径 169
1989 168
23 168
ra@@ 168
三分之二 168
也就是说 168
外国人 168
居 168
常 168
执@@ 168
支持率 168
查韦斯 168
模@@ 168
欣@@ 168
灵活性 168
示 168
索马里 168
轻易 168
配置 168
随 168
亿人 167
务实 167
同事 167
孟加拉国 167
抱怨 167
提案 167
斯大林 167
果断 167
派@@ 167
绝 167
解放 167
诺 167
三 166
供应链 166
出生 166
创@@ 166
培养 166
少@@ 166
尼亚 166
感受 166
抵抗 166
等等 166
贸易@@ 166
适当 166
银行业 166
uc@@ 165
中等 165
先例 165
公共@@ 165
凯恩斯主义 165
动用 165
历@@ 165
发明 165
崩盘 165
庇护 165
库尔德人 165
底@@ 165
引擎 165
拿 165
接 165
收集 165
断 165
案件 165
段 165
波斯尼亚 165
活跃 165
特点 165
薪 165
超级 165
近几年来 165
首都 165
28 164
9@@ 164
as 164
之势 164
争夺 164
伦理 164
你们 164
升@@ 164
卡塔尔 164
字@@ 164
容@@ 164
布莱尔 164
换@@ 164
时任 164
汇@@ 164
生物@@ 164
登@@ 164
领 164
5@@ 163
一篇 163
何时 163
余@@ 163
势头 163
命@@ 163
商业银行 163
坐@@ 163
市@@ 163
摩@@ 163
收缩 163
有害 163
游行 163
满 163
胜 163
营 163
观@@ 163
贷款人 163
频繁 163
R 162
im@@ 162
义@@ 162
会谈 162
保罗 162
兼@@ 162
吃 162
室 162
寿命 162
户 162
有望 162
独特 162
短@@ 162
管道 162
紧 162
进化 162
通胀率 162
颇 162
75 161
东京 161
冒 161
去@@ 161
婴儿 161
希@@ 161
当今世界 161
很@@ 161
拖@@ 161
更高 161
检查 161
眼下 161
膨胀 161
资@@ 161
迈向 161
阿尔及利亚 161
2050 160
上限 160
亡 160
人均收入 160
依@@ 160
倒@@ 160
几周 160
前往 160
华尔街 160
哪@@ 160
对付 160
左派 160
延续 160
愿 160
房@@ 160
扩展 160
散 160
清 160
灵@@ 160
给@@ 160
自由市场 160
议定书 160
这类 160
连任 160
迷@@ 160
重振 160
颠覆 160
马德里 160
1991 159
ed@@ 159
f 159
ov@@ 159
二 159
具 159
娜 159
急@@ 159
本月 159
消极 159
矿@@ 159
西欧 159
身体 159
转 159
雇员 159
非常规 159
领先 159
1979 158
二十一 158
五个 158
什@@ 158
借助 158
免@@ 158
免受 158
剧烈 158
原教旨主义 158
坚决 158
建 158
悲观 158
攀升 158
流离失所 158
猛@@ 158
生态系统 158
碳@@ 158
薪酬 158
袭 158
裔 158
负面 158
追随者 158
金钱 158
领导者 158
r 157
京都 157
低成本 157
债 157
切实 157
及@@ 157
完@@ 157
密切 157
小国 157
希拉里 157
延@@ 157
总统大选 157
房 157
服 157
核能 157
泰@@ 157
150 156
上海 156
义 156
创建 156
大脑 156
常态 156
张 156
忘记 156
慷慨 156
新一轮 156
泛 156
源自 156
环境@@ 156
稀@@ 156
线@@ 156
自信 156
赛@@ 156
跨境 156
迎来 156
主题 155
出资 155
安全@@ 155
巴拉克 155
所赐 155
挪威 155
政@@ 155
曾@@ 155
有权 155
沟通 155
秘书长 155
第一步 155
第二次 155
签@@ 155
继任者 155
群 155
致 155
装@@ 155
诉讼 155
还@@ 155
连续 155
退休金 155
难度 155
不安 154
借@@ 154
减弱 154
初@@ 154
周 154
多元 154
工作岗位 154
最大化 154
极度 154
永久 154
海啸 154
激发 154
炸弹 154
牵@@ 154
能量 154
药@@ 154
获@@ 154
观察家 154
谷歌 154
起义 154
趋@@ 154
中共 153
从前 153
公共卫生 153
关联 153
反复 153
听到 153
吸@@ 153
大家 153
容 153
幻想 153
得出 153
新德里 153
疗法 153
美军 153
聪明 153
豪@@ 153
雨@@ 153
20@@ 152
In@@ 152
os@@ 152
元 152
内阁 152
冰@@ 152
始于 152
实质 152
尊严 152
干扰 152
平均水平 152
弱势 152
强有力 152
微 152
战略@@ 152
抵御 152
支 152
来到 152
某@@ 152
次@@ 152
治 152
父亲 152
犯下 152
细节 152
误@@ 152
阶级 152
196@@ 151
一倍 151
决@@ 151
出色 151
南海 151
取得成功 151
叛乱 151
周年 151
哪 151
唐纳德 151
富国 151
征税 151
惊讶 151
摩洛哥 151
树立 151
核不扩散 151
法规 151
硬 151
硬@@ 151
论文 151
诞生 151
这份 151
通往 151
黄@@ 151
eg@@ 150
剩下 150
北方 150
启@@ 150
快@@ 150
截然不同 150
是从 150
毫不@@ 150
牛@@ 150
皇@@ 150
自由民主 150
角 150
言论自由 150
造 150
降 150
中央政府 149
判决 149
哪怕 149
外交官 149
奇@@ 149
希特勒 149
年增长率 149
患 149
投资@@ 149
护@@ 149
斯坦 149
死亡率 149
比赛 149
狭隘 149
现 149
症状 149
眼中 149
结@@ 149
著作 149
认同 149
诱惑 149
魅力 149
鼓吹 149
不变 148
为首 148
交易@@ 148
休@@ 148
反思 148
夏天 148
形@@ 148
折@@ 148
模糊 148
民族@@ 148
消耗 148
深 148
焦虑 148
舞台 148
请 148
金融业 148
1970 147
The 147
os 147
p 147
一支 147
以南 147
军事力量 147
单方面 147
发射 147
周边 147
归 147
挣扎 147
早些时候 147
机器人 147
毁灭 147
治@@ 147
爆炸 147
王@@ 147
相比之下 147
非常@@ 147
26 146
Ch@@ 146
上台 146
书@@ 146
仔细 146
修复 146
力度 146
墙 146
对策 146
待遇 146
必要性 146
朝@@ 146
温@@ 146
父母 146
结 146
网站 146
话题 146
诸如 146
课程 146
身为 146
达成协议 146
遵循 146
高企 146
高质量 146
è 145
乎 145
买 145
修订 145
原 145
哥@@ 145
围绕 145
堪称 145
尤@@ 145
布什总统 145
张@@ 145
收到 145
收益率 145
政坛 145
敌意 145
救援 145
无视 145
果 145
母@@ 145
毫无@@ 145
生态 145
立 145
胎 145
艺术 145
设置 145
质@@ 145
述 145
陆@@ 145
专门 144
丹 144
供 144
分离 144
压迫 144
友好 144
古老 144
对比 144
有趣 144
极有 144
校 144
独立性 144
纯粹 144
苦@@ 144
萎靡 144
识别 144
谈论 144
一片 143
不利于 143
价格@@ 143
判@@ 143
务@@ 143
哈尼 143
夫@@ 143
想起 143
教师 143
散@@ 143
狂@@ 143
移动 143
章 143
综合 143
藏 143
财政@@ 143
败@@ 143
过时 143
食 143
高速 143
M 142
东部 142
中国@@ 142
便利 142
储量 142
充斥 142
免费 142
哈梅内伊 142
德国总理 142
惨@@ 142
招@@ 142
探讨 142
效益 142
涌入 142
破@@ 142
考察 142
许@@ 142
转而 142
避@@ 142
一代人 141
东南亚 141
便@@ 141
北欧 141
十 141
国有 141
强迫 141
排斥 141
教徒 141
暴行 141
有点 141
胜@@ 141
营养不良 141
蒂 141
装 141
计算机 141
足球 141
远离 141
遗产 141
遥远 141
邀请 141
附近 141
ha@@ 140
不上 140
丹@@ 140
人会 140
勇气 140
受过 140
台@@ 140
失灵 140
奖@@ 140
实际@@ 140
平心而论 140
征收 140
恩@@ 140
支@@ 140
更多地 140
毛泽东 140
竞争对手 140
管理@@ 140
编@@ 140
缺失 140
联邦政府 140
自然@@ 140
良@@ 140
证@@ 140
谢@@ 140
迈出 140
进口@@ 140
送 140
飓风 140
193@@ 139
Pro@@ 139
倒台 139
减免 139
别人 139
动态 139
名字 139
埃塞俄比亚 139
备 139
多种 139
委员 139
客 139
对方 139
差@@ 139
思@@ 139
恶 139
持续增长 139
收紧 139
没能 139
白宫 139
萎缩 139
记@@ 139
超级大国 139
退 139
逃离 139
高管 139
65 138
or 138
不想 138
借款 138
加深 138
史@@ 138
城市化 138
太多 138
好事 138
官 138
审@@ 138
展@@ 138
巨头 138
平 138
必需 138
折磨 138
抨击 138
易 138
民调 138
破裂 138
示@@ 138
缩减 138
耳@@ 138
认知 138
软件 138
隆 138
1992 137
Con@@ 137
man 137
亦然 137
人力资本 137
众 137
传递 137
势@@ 137
印 137
大幅度 137
实质性 137
工业@@ 137
建设性 137
往@@ 137
成绩 137
扫@@ 137
杀害 137
清算 137
熟悉 137
电子 137
石 137
种植 137
精力 137
自由@@ 137
至@@ 137
船 137
赢家 137
预言 137
W 136
au@@ 136
享有 136
伯克利 136
住@@ 136
克斯 136
公债 136
再度 136
刑@@ 136
商人 136
如同 136
平均@@ 136
并非如此 136
引用 136
恰恰相反 136
成分 136
指望 136
支配 136
无数 136
普及 136
根深蒂固 136
梦 136
浪潮 136
现代@@ 136
目 136
等国 136
精神@@ 136
繁@@ 136
行事 136
读 136
谋@@ 136
贫@@ 136
购买力 136
通信 136
错@@ 136
颇为 136
Sh@@ 135
一段 135
作者 135
充当 135
准则 135
协会 135
历史性 135
合作@@ 135
商业@@ 135
固@@ 135
坚@@ 135
守@@ 135
安倍晋三 135
工作者 135
建国 135
当作 135
志@@ 135
撒切尔 135
撒哈拉 135
收购 135
无能 135
明证 135
有益 135
本来 135
求 135
略@@ 135
瘫痪 135
目睹 135
详细 135
轮@@ 135
震惊 135
600 134
Y@@ 134
世贸组织 134
个@@ 134
写道 134
小型 134
态势 134
承@@ 134
换 134
无可@@ 134
服务@@ 134
毒 134
激增 134
痛@@ 134
登 134
皮 134
石油@@ 134
社会福利 134
象 134
跨国公司 134
辩护 134
采@@ 134
限 134
17@@ 133
临@@ 133
买入 133
从根本上 133
俱乐部 133
出口国 133
半岛 133
发电 133
导 133
封@@ 133
接下来 133
提名 133
数百@@ 133
架构 133
格林斯潘 133
漏洞 133
知识产权 133
码 133
紧张局势 133
解读 133
遗憾 133
里斯本 133
随之而来 133
1995 132
qu@@ 132
下台 132
伤@@ 132
佩@@ 132
假 132
北 132
印度人 132
各地 132
同盟 132
味 132
增长速度 132
幸@@ 132
必将 132
愚蠢 132
房屋 132
探@@ 132
欧洲各国 132
牛 132
目光 132
联合@@ 132
股@@ 132
菌 132
蒂@@ 132
诚@@ 132
跌@@ 132
路线 132
较为 132
运输 132
邪恶 132
顶 132
黎@@ 132
不顾 131
交 131
什么样 131
便宜 131
关键问题 131
前沿 131
劳工 131
参议员 131
同情 131
地理 131
子女 131
学术 131
守 131
定期 131
就算 131
希腊政府 131
拿@@ 131
文件 131
新型 131
最高法院 131
棘手 131
细@@ 131
结盟 131
罗姆尼 131
职责 131
脆弱性 131
脚 131
获 131
谈@@ 131
除@@ 131
ak@@ 130
侵蚀 130
保护@@ 130
偏见 130
全民 130
共 130
出人意料 130
创立 130
前途 130
商界 130
喜@@ 130
基本面 130
学会 130
据说 130
普林斯顿 130
杀戮 130
烟@@ 130
特权 130
石@@ 130
种族灭绝 130
置于 130
苦难 130
董事会 130
衍生品 130
解除 130
财@@ 130
败 130
适@@ 130
重大@@ 130
限于 130
ig@@ 129
od@@ 129
ub@@ 129
事物 129
产权 129
会晤 129
余 129
停滞不前 129
兼 129
出版 129
副@@ 129
劳动者 129
塞 129
奥运会 129
导@@ 129
必不可少 129
打算 129
指引 129
控制权 129
揭示 129
无辜 129
第四 129
纸@@ 129
缺@@ 129
认@@ 129
财产 129
货 129
赞成 129
逐@@ 129
阿 129
An@@ 128
伦 128
倡议 128
免 128
吨 128
增 128
套 128
康@@ 128
打开 128
正常化 128
比利时 128
流失 128
益 128
等于 128
管理者 128
虐待 128
裁@@ 128
迫切需要 128
ard 127
ay@@ 127
ia 127
一大@@ 127
不应 127
产物 127
创业 127
各大 127
堡 127
多大 127
息@@ 127
效仿 127
教皇 127
新增 127
新闻@@ 127
生产商 127
评@@ 127
贾@@ 127
逮捕 127
重启 127
重新@@ 127
雅 127
青@@ 127
高风险 127
at 126
um@@ 126
一面 126
伯南克 126
作家 126
保守党 126
全民公决 126
击败 126
利亚 126
反对党 126
度@@ 126
开采 126
弹@@ 126
扼杀 126
技术@@ 126
捐@@ 126
据@@ 126
效@@ 126
敌 126
无法@@ 126
根本无法 126
模仿 126
止 126
测量 126
电视台 126
累积 126
罗伯特 126
非正式 126
DNA 125
ad 125
令人瞩目 125
众议院 125
侧 125
修建 125
兴起 125
加州 125
厌恶 125
周期性 125
宣@@ 125
宪章 125
常见 125
弗里德曼 125
戴 125
未必 125
浪 125
灭 125
瑞@@ 125
生效 125
真 125
示威者 125
藏@@ 125
西藏 125
象征 125
货币贬值 125
部落 125
铁路 125
雄心勃勃 125
雷曼 125
1000 124
E 124
三倍 124
之内 124
低效 124
保险公司 124
包 124
双边关系 124
另@@ 124
天气 124
布雷顿 124
废@@ 124
怪@@ 124
手机 124
打造 124
探索 124
支柱 124
放任 124
期限 124
极端分子 124
架 124
渔@@ 124
演@@ 124
画@@ 124
留 124
短 124
社交 124
福祉 124
私有 124
种子 124
纪念 124
组建 124
股价 124
芬兰 124
计价 124
赞@@ 124
辛格 124
边缘化 124
迫害 124
采取措施 124
高出 124
一座 123
一部 123
不止 123
制衡 123
含@@ 123
告 123
地下 123
对冲 123
射 123
局限于 123
强力 123
很小 123
很长 123
思 123
情感 123
报复 123
持@@ 123
果@@ 123
枪@@ 123
根@@ 123
欢@@ 123
激起 123
略 123
相结合 123
研究者 123
秘鲁 123
空气污染 123
筹@@ 123
置 123
触@@ 123
谋 123
SDR 122
代替 122
令人震惊 122
几天 122
刻 122
卡尔 122
卷入 122
后续 122
帮 122
当代 122
影子 122
意思 122
成效 122
接种 122
最具 122
有意 122
水资源 122
生命@@ 122
电视@@ 122
盘 122
知识分子 122
积@@ 122
纽@@ 122
舆论 122
般 122
英雄 122
退欧 122
选出 122
速 122
采纳 122
问责 122
顿@@ 122
驱逐 122
高科技 122
b 121
la 121
作战 121
储蓄率 121
发展@@ 121
变为 121
呼声 121
困 121
境内 121
宣扬 121
平价 121
归咎于 121
成千上万 121
投 121
掌控 121
提交 121
权衡 121
民意调查 121
港 121
犯@@ 121
玻利维亚 121
电话 121
盖茨 121
社会党 121
种种 121
老龄化 121
能源@@ 121
触发 121
诺贝尔奖 121
赶@@ 121
连接 121
邓小平 121
采购 121
长远 121
TPP 120
一新 120
之处 120
债务人 120
决不能 120
包@@ 120
双重 120
含义 120
国际贸易 120
在此期间 120
地图 120
奇迹 120
宝贵 120
干旱 120
并不一定 120
广场 120
应付 120
影 120
慈善 120
敬@@ 120
日本@@ 120
比如说 120
民主化 120
浓缩 120
王国 120
班@@ 120
精确 120
萨科齐 120
行列 120
觉 120
财政部 120
选战 120
+ 119
ali@@ 119
不可或缺 119
不错 119
全体 119
公私 119
公里 119
出手 119
刑 119
到达 119
土壤 119
增税 119
孤@@ 119
当下 119
或@@ 119
投行 119
改造 119
斗 119
料 119
无关 119
智@@ 119
海湾 119
温度 119
满意 119
着手 119
竭尽全力 119
肯 119
语@@ 119
贫困人口 119
资 119
辞职 119
里根 119
1945 118
c 118
gt 118
万亿 118
丘吉尔 118
两党 118
令人担忧 118
优秀 118
共同体 118
凸显 118
分布 118
北非 118
名单 118
扬 118
抽@@ 118
指向 118
提前 118
有史以来 118
海军 118
熟@@ 118
私营部门 118
箱 118
自由派 118
草案 118
评价 118
贵 118
身处 118
间@@ 118
难道 118
顽固 118
z 117
‘ 117
之争 117
交通@@ 117
传染 117
住宅 117
侵略 117
充@@ 117
分化 117
参议院 117
及时 117
周围 117
圈 117
多次 117
太过 117
威慑 117
实在 117
帝国主义 117
总体而言 117
所得税 117
提及 117
杂志 117
森@@ 117
欠 117
率@@ 117
甚 117
盛@@ 117
竞争性 117
纪律 117
经济繁荣 117
结核病 117
网络@@ 117
考@@ 117
职@@ 117
聚@@ 117
脱 117
草@@ 117
莫过于 117
菲 117
跳@@ 117
轰炸 117
酒 117
震@@ 117
食@@ 117
默 117
ers 116
ey 116
id@@ 116
ow@@ 116
一句 116
事态 116
人民@@ 116
什 116
俗 116
儿子 116
免疫 116
写@@ 116
可是 116
基督徒 116
家园 116
开来 116
异常 116
形容 116
恐怕 116
所有权 116
挂钩 116
摆@@ 116
晚@@ 116
更新 116
本世纪 116
查 116
此时 116
源@@ 116
继承 116
罕见 116
罗斯福 116
耶@@ 116
股票市场 116
茨 116
行使 116
辛@@ 116
迹 116
附@@ 116
零售 116
首 116
高层 116
son 115
一批 115
令人信服 115
借钱 115
克里米亚 115
失 115
宏大 115
年内 115
归根结底 115
录 115
攻@@ 115
既然 115
更强 115
植物 115
正好 115
涅@@ 115
滥@@ 115
燃烧 115
绑架 115
继 115
设 115
边际 115
阴@@ 115
ef@@ 114
不及 114
久@@ 114
众所周知 114
低碳 114
借 114
元素 114
典@@ 114
千万 114
友 114
和平@@ 114
大气 114
实验室 114
宽@@ 114
宾@@ 114
幅 114
所作所为 114
抗 114
拖延 114
推高 114
更长 114
柬埔寨 114
核电站 114
民间 114
海地 114
海平面 114
源于 114
电网 114
画 114
绿@@ 114
警惕 114
讨价还价 114
讲@@ 114
转换 114
除此之外 114
顶@@ 114
顾 114
ence 113
一词 113
剧 113
办@@ 113
卫星 113
压倒性 113
哲学 113
售 113
复杂性 113
失误 113
审视 113
察@@ 113
引人注目 113
批 113
拥@@ 113
日内瓦 113
是@@ 113
正面 113
父 113
生产@@ 113
英国政府 113
议 113
误解 113
重申 113
隔离 113
面积 113
​ 112
一小部分 112
不用 112
中学 112
二十@@ 112
今@@ 112
体验 112
元@@ 112
冻结 112
别无选择 112
古 112
可见 112
同一 112
围@@ 112
大力 112
巴勒斯坦国 112
市长 112
广 112
庆祝 112
待@@ 112
恰@@ 112
房子 112
望@@ 112
来源于 112
枪 112
止@@ 112
比尔 112
省@@ 112
破灭 112
穆罕默德 112
记 112
风能 112
高涨 112
lt 111
ty 111
º 111
不仅如此 111
丽@@ 111
优惠 111
信息技术 111
充分就业 111
免于 111
养@@ 111
准@@ 111
博弈 111
意味 111
斯里兰卡 111
星期 111
极右翼 111
欧洲@@ 111
没什么 111
浅 111
环保 111
疲@@ 111
短暂 111
维尔 111
英国首相 111
蒙 111
血腥 111
衰@@ 111
谋杀 111
过分 111
迈@@ 111
近来 111
野蛮 111
阴影 111
集 111
800 110
不太 110
中小企业 110
中止 110
主导地位 110
今日 110
具体@@ 110
分割 110
判 110
南亚 110
占@@ 110
受损 110
外交@@ 110
大于 110
如果说 110
子孙后代 110
工程师 110
手里 110
放大 110
族裔 110
最多 110
李@@ 110
珍@@ 110
疾 110
移@@ 110
词@@ 110
重重 110
阿拉伯@@ 110
麻@@ 110
1994 109
IS@@ 109
Paul 109
€ 109
一张 109
一群 109
临近 109
份 109
侵@@ 109
保守主义 109
克鲁格曼 109
公共政策 109
共同利益 109
兵@@ 109
凝聚力 109
原油 109
名为 109
喀@@ 109
回合 109
在短期内 109
多哈 109
奖 109
宗派 109
官@@ 109
家人 109
币 109
录@@ 109
控制@@ 109
提款权 109
无所@@ 109
根除 109
气温 109
生产者 109
界@@ 109
礼 109
科奇 109
税收收入 109
空气 109
策 109
联合政府 109
跨越 109
透@@ 109
重复 109
香@@ 109
高等教育 109
龙 109
1967 108
丁 108
上帝 108
举办 108
创造力 108
副作用 108
历史学家 108
国界 108
基本@@ 108
境地 108
壮@@ 108
外交部长 108
天主教 108
弹性 108
忠诚 108
怀 108
怪 108
总结 108
意志 108
更糟 108
月@@ 108
永久性 108
泥@@ 108
注册 108
渐@@ 108
港口 108
范畴 108
贝卢斯科尼 108
迫切 108
送@@ 108
阿尔@@ 108
预示 108
ch 107
ci@@ 107
ill@@ 107
一届 107
介@@ 107
付 107
公路 107
出口@@ 107
升 107
半个世纪 107
压@@ 107
吃@@ 107
土 107
场@@ 107
头上 107
寄@@ 107
征@@ 107
德拉吉 107
无人机 107
星@@ 107
最高@@ 107
极限 107
毛@@ 107
犹豫 107
现行 107
统@@ 107
罗马尼亚 107
自治 107
苦 107
西部 107
赢 107
邻@@ 107
长达 107
闻 107
阿拉法特 107
随时 107
&# 106
-- 106
CEO 106
丧生 106
互换 106
仅@@ 106
价格上涨 106
凡 106
制止 106
卢@@ 106
受益者 106
司法@@ 106
块 106
开发@@ 106
开罗 106
接收 106
播@@ 106
效力 106
木@@ 106
确立 106
神经@@ 106
维也纳 106
自主 106
警方 106
诚实 106
越发 106
通讯 106
频@@ 106
风格 106
魔@@ 106
1993 105
Car@@ 105
Facebook 105
不像 105
不清 105
习@@ 105
佐@@ 105
减缓 105
努@@ 105
吉 105
呼@@ 105
多地 105
大门 105
婚姻 105
席卷 105
忍受 105
恐怖组织 105
捕@@ 105
收回 105
故意 105
教派 105
斯特@@ 105
概率 105
此举 105
沃尔@@ 105
洪@@ 105
甘@@ 105
稳固 105
调查@@ 105
贸易赤字 105
跨@@ 105
转基因 105
雇用 105
马车 105
ent@@ 104
ity 104
op@@ 104
不当 104
中欧 104
九十年代 104
事关 104
伤 104
债券市场 104
关押 104
再也 104
剧@@ 104
办 104
发挥作用 104
和谐 104
声誉 104
外债 104
大肆 104
客@@ 104
悬崖 104
推向 104
方济各 104
施压 104
样@@ 104
欺骗 104
步伐 104
民选 104
沙龙 104
温和派 104
潮流 104
界线 104
移 104
糖尿病 104
继@@ 104
罪@@ 104
美好 104
股本 104
肥胖 104
购@@ 104
迁徙 104
远比 104
野@@ 104
险@@ 104
韩 104
黑 104
it 103
tr@@ 103
不得 103
人心 103
伊拉克人 103
信息@@ 103
充分@@ 103
内需 103
劳动@@ 103
北美 103
国防部长 103
塑造 103
大使 103
奉行 103
奖励 103
局限 103
微妙 103
总裁 103
总部 103
想到 103
戴@@ 103
指令 103
推移 103
敌对 103
无效 103
朝着 103
民族主义者 103
洗@@ 103
海岸 103
漫@@ 103
烟 103
烟草 103
煤@@ 103
状 103
的@@ 103
监@@ 103
稳定@@ 103
穷 103
竞赛 103
第四@@ 103
约旦河西岸 103
群@@ 103
记住 103
贪婪 103
资金@@ 103
趋同 103
通货紧缩 103
道歉 103
配额 103
阻力 103
降到 103
雨 103
顺@@ 103
高得 103
不乏 102
作品 102
佳 102
僵化 102
勒庞 102
医疗保健 102
多久 102
季 102
小布什 102
尽快 102
投票@@ 102
抢@@ 102
拆@@ 102
操@@ 102
教育@@ 102
旅行 102
日本银行 102
是不是 102
核试验 102
殖民地 102
民兵 102
治下 102
注重 102
灾@@ 102
特区 102
球@@ 102
疑 102
真空 102
组@@ 102
联合国大会 102
英 102
虫 102
财政状况 102
辈 102
近乎 102
释 102
饮@@ 102
: 101
se 101
不负责任 101
两岸 101
以巴 101
倒退 101
债@@ 101
公共服务 101
切断 101
叛军 101
叫 101
同等 101
地点 101
夜 101
大得多 101
奋@@ 101
小学 101
平息 101
弄 101
弹 101
恢复力 101
戈@@ 101
房产 101
护 101
数年 101
欠@@ 101
汉@@ 101
游 101
着眼于 101
穿 101
算@@ 101
自杀 101
节目 101
花钱 101
运营 101
远远不够 101
铁 101
险 101
顾@@ 101
ex@@ 100
š 100
一轮 100
债权国 100
创造性 100
务 100
医疗保险 100
单独 100
卢旺达 100
厂 100
响 100
坚挺 100
增进 100
多重 100
大程度 100
将@@ 100
广告 100
广大 100
急 100
恶性循环 100
悲@@ 100
撤出 100
改 100
故@@ 100
无知 100
暂停 100
杀死 100
涨 100
用途 100
界限 100
简@@ 100
致使 100
达沃斯 100
隐含 100
集中@@ 100
颇具 100
1960 99
1996 99
ah@@ 99
am 99
三驾 99
不受 99
乏@@ 99
乔@@ 99
仍@@ 99
内在 99
刑事 99
十九世纪 99
南方 99
历史@@ 99
哲学家 99
回报率 99
团@@ 99
增速 99
少数民族 99
应有 99
式@@ 99
德尔 99
恶劣 99
成百上千 99
按@@ 99
捕捞 99
旅@@ 99
有序 99
杀@@ 99
果真如此 99
桶 99
欧洲理事会 99
正统 99
氛围 99
海上 99
淡@@ 99
清除 99
环@@ 99
田 99
疯狂 99
癌 99
白人 99
破 99
秘@@ 99
竭力 99
粉@@ 99
论点 99
设想 99
该党 99
载@@ 99
违@@ 99
逆@@ 99
钱@@ 99
飞 99
1973 98
Development 98
ement 98
ep@@ 98
ug@@ 98
不让 98
之道 98
交给 98
以为@@ 98
停 98
共和党人 98
出席 98
分担 98
剩余 98
劳 98
勇敢 98
协商 98
卷土重来 98
友@@ 98
命令 98
囚犯 98
回事 98
基石 98
备@@ 98
工业革命 98
延伸 98
开端 98
弱@@ 98
搞 98
旧@@ 98
有所不同 98
服@@ 98
机关 98
束缚 98
汇款 98
洛 98
测 98
燃@@ 98
盘@@ 98
缓冲 98
自民党 98
话@@ 98
说服力 98
超 98
运动员 98
金融服务 98
隐藏 98
黑暗 98
250 97
ev@@ 97
iv@@ 97
一度 97
一揽子 97
不已 97
世纪末 97
两名 97
临床 97
主动 97
五 97
公共财政 97
创新性 97
园 97
国民收入 97
在经济上 97
堂 97
奈 97
姆@@ 97
宽容 97
开放@@ 97
归因于 97
成年人 97
扩张性 97
报酬 97
指定 97
挑衅 97
排 97
无需 97
注@@ 97
泽@@ 97
洪水 97
派遣 97
涵盖 97
温 97
牙@@ 97
现实@@ 97
生育 97
稍@@ 97
稳步 97
简而言之 97
经典 97
网@@ 97
联 97
舒@@ 97
荣 97
葛兰 97
议会选举 97
轻松 97
过多 97
遗传 97
金额 97
链 97
雄心 97
革命@@ 97
骨@@ 97
高兴 97
ine 96
丝 96
代理人 96
八 96
关键作用 96
关键性 96
单纯 96
厄@@ 96
同性恋 96
季@@ 96
封闭 96
尼泊尔 96
属@@ 96
希 96
弃 96
担@@ 96
摩尔多瓦 96
日常 96
机场 96
汲取 96
派别 96
溢价 96
演化 96
潜@@ 96
生产性 96
神 96
联合国@@ 96
能源价格 96
能源安全 96
节约 96
赚 96
车臣 96
金融监管 96
防卫 96
雇佣 96
需@@ 96
高估 96
az@@ 95
og@@ 95
上周 95
上演 95
不起 95
中亚 95
以为 95
伊朗核 95
信奉 95
六年 95
典 95
凭 95
压低 95
合约 95
在外 95
场合 95
大城市 95
夫人 95
威尔 95
安全网 95
对峙 95
对称 95
巨大@@ 95
席 95
情愿 95
感兴趣 95
折 95
挑@@ 95
接纳 95
数据@@ 95
整整 95
权益 95
村庄 95
母 95
消费@@ 95
王 95
直面 95
礼@@ 95
立法者 95
续@@ 95
耗尽 95
荷@@ 95
誓@@ 95
轨 95
轨道 95
迈进 95
追溯到 95
途 95
骚乱 95
2017 94
end@@ 94
ent 94
ik@@ 94
oo@@ 94
一幕 94
不定 94
供应商 94
假定 94
关键因素 94
几十@@ 94
号召 94
各州 94
哈 94
国内外 94
坦 94
奏效 94
它会 94
害@@ 94
密集型 94
岸@@ 94
工作人员 94
巨型 94
广义 94
总数 94
抛@@ 94
控@@ 94
有机 94
极化 94
棒 94
毕业生 94
派系 94
涉@@ 94
版@@ 94
瓦解 94
病例 94
眼前 94
短短 94
种@@ 94
经理 94
胜出 94
获得者 94
行为@@ 94
观察者 94
论证 94
设法 94
起点 94
软弱 94
迎接 94
铀 94
顶峰 94
顽@@ 94
题 94
饥荒 94
鱼@@ 94
Global 93
不力 93
不断扩大 93
主管 93
乱@@ 93
伪@@ 93
保险@@ 93
债务国 93
偷@@ 93
化学武器 93
卫@@ 93
受困 93
呈现 93
安全性 93
尚@@ 93
就业率 93
尼克松 93
持有人 93
据估计 93
推 93
斯基 93
春天 93
显现 93
桑德斯 93
检@@ 93
源泉 93
片@@ 93
环 93
盖@@ 93
研究@@ 93
禁令 93
籍 93
耗@@ 93
耗费 93
英语 93
荒谬 93
讯 93
许可 93
诉 93
诱@@ 93
载 93
逃避 93
重演 93
非国家 93
预料 93
En@@ 92
Z@@ 92
ob@@ 92
ts 92
一块 92
令人不安 92
体面 92
侯赛因 92
凸显出 92
十分@@ 92
十多年 92
回避 92
夺@@ 92
庆@@ 92
弄@@ 92
抵@@ 92
撤离 92
数千@@ 92
既@@ 92
更能 92
有效性 92
本应 92
杀伤性 92
树@@ 92
检验 92
治国 92
沿@@ 92
法律@@ 92
深陷 92
混合 92
滑@@ 92
猜测 92
神经 92
福 92
粗@@ 92
而后 92
荒@@ 92
营@@ 92
著 92
讨 92
误导 92
谱 92
负面影响 92
较大 92
逊 92
销@@ 92
马里 92
38 91
European 91
ich@@ 91
不必要 91
中国人民银行 91
云@@ 91
亦 91
价@@ 91
储存 91
兑 91
加纳 91
包围 91
叶利钦 91
呼 91
坎@@ 91
坏消息 91
妻子 91
字 91
尤为 91
层次 91
带有 91
强加 91
态 91
总人口 91
收 91
数十亿美元 91
无关紧要 91
有时候 91
本币 91
松 91
武@@ 91
清洗 91
种类 91
背@@ 91
自动化 91
虎 91
衣@@ 91
裂@@ 91
豁免 91
这部分 91
进来 91
逃 91
速@@ 91
逼@@ 91
邻 91
Re@@ 90
ic 90
oc@@ 90
¸ 90
三国 90
之地 90
人人 90
位@@ 90
减记 90
别的 90
制造商 90
化学 90
区@@ 90
即便如此 90
厚 90
叹 90
坎布里奇 90
多人 90
失控 90
夸大 90
学科 90
安抚 90
将近 90
库尔德 90
慕尼黑 90
抗药性 90
掀起 90
最小化 90
最快 90
歌@@ 90
测@@ 90
男@@ 90
留给 90
盟 90
确切 90
稳健 90
穿@@ 90
聚集 90
船@@ 90
营造 90
落入 90
课@@ 90
贷@@ 90
赞同 90
邻居 90
金本位 90
阴谋 90
隔 90
Party 89
ut@@ 89
一贯 89
不良 89
为期 89
仰@@ 89
倍@@ 89
农场 89
列为 89
协作 89
危@@ 89
叫@@ 89
可观 89
含 89
吹@@ 89
哈佛大学 89
境况 89
孟买 89
宇宙 89
平静 89
年均 89
序 89
微不足道 89
或者说 89
斯洛伐克 89
更快 89
末@@ 89
毁灭性 89
灯 89
照顾 89
真是 89
积极@@ 89
稳@@ 89
笔@@ 89
脚@@ 89
般的 89
视而不见 89
访@@ 89
责 89
赌注 89
过高 89
陷于 89
隔@@ 89
面向 89
韦@@ 89
鲍@@ 89
31 88
700 88
John 88
x 88
世界杯 88
也@@ 88
伊朗人 88
体育 88
偏离 88
初衷 88
刻@@ 88
千 88
升息 88
半数 88
原来 88
尖锐 88
巴尔干 88
布朗 88
强制性 88
悖论 88
想想 88
战术 88
扩@@ 88
描绘 88
数学 88
无比 88
暖 88
更为重要 88
杂@@ 88
极少 88
检测 88
淡 88
献@@ 88
王朝 88
直觉 88
看成 88
确信 88
社会民主党 88
租@@ 88
空袭 88
筹集 88
简直 88
纪录 88
职能 88
肉 88
课 88
购 88
起草 88
输 88
辩 88
适得其反 88
造就 88
都@@ 88
配 88
长久 88
120 87
16@@ 87
io 87
pro@@ 87
不好 87
亚地区 87
仁 87
传达 87
供应@@ 87
刚@@ 87
叙事 87
善 87
基因组 87
天然 87
奥斯陆 87
妇 87
小心 87
幻觉 87
彩 87
微小 87
押 87
控 87
摄@@ 87
摇@@ 87
收获 87
既得利益 87
日本政府 87
日本首相 87
木 87
本土 87
杰夫 87
样 87
欺@@ 87
洲 87
监督@@ 87
祖@@ 87
糖 87
纷@@ 87
结局 87
耐@@ 87
评论家 87
阵@@ 87
静@@ 87
驾@@ 87
鼓舞 87
1930 86
29 86
Ab@@ 86
ne 86
us 86
一路 86
丝绸之路 86
丰@@ 86
乳@@ 86
代理 86
保 86
倾@@ 86
入盟 86
军官 86
凭借 86
卫队 86
却@@ 86
原有 86
反腐 86
变迁 86
哈萨克斯坦 86
四 86
圣地 86
外汇 86
外流 86
容克 86
射@@ 86
就此 86
工作@@ 86
巴格达 86
急切 86
戴高乐 86
损@@ 86
推动力 86
明星 86
每次 86
沙 86
泽 86
濒@@ 86
玛 86
生物学 86
监测 86
社@@ 86
穷@@ 86
竞争者 86
笑 86
练 86
谷 86
选区 86
阿里 86
餐 86
85 85
International 85
U 85
ate 85
„ 85
主权国家 85
偿@@ 85
储户 85
公共品 85
其所 85
南斯拉夫 85
压倒 85
呈 85
复 85
妙 85
察 85
归功于 85
心态 85
悄@@ 85
战场 85
战士 85
把持 85
捷克 85
接管 85
教会 85
本周 85
殖民 85
氏 85
沃@@ 85
温家宝 85
溢出 85
牢@@ 85
社团 85
福岛 85
站@@ 85
签证 85
纪@@ 85
纲领 85
耐心 85
职务 85
联邦@@ 85
股份 85
解散 85
让@@ 85
迫@@ 85
铺@@ 85
零利率 85
首位 85
SDG 84
Sch@@ 84
V 84
all@@ 84
aw@@ 84
w 84
七年 84
不亚于 84
不堪 84
中央@@ 84
买单 84
事实证明 84
人力 84
人选 84
他信 84
以致 84
伐 84
伤亡 84
克里 84
全力 84
到期 84
助者 84
同一个 84
后代 84
向前 84
吸烟 84
唯@@ 84
喜 84
宗@@ 84
年里 84
必要条件 84
揭露 84
斯坦@@ 84
斯特 84
更少 84
替代品 84
最坏 84
核电 84
流程 84
浪@@ 84
献 84
白俄罗斯 84
相提并论 84
约束力 84
缩短 84
美国公司 84
苹果 84
范式 84
药方 84
遥@@ 84
部@@ 84
重创 84
阿卜杜拉 84
隐私 84
靠@@ 84
马克 84
Robert 83
ance 83
erg@@ 83
一个月 83
一战 83
一番 83
不出 83
不难理解 83
世界贸易组织 83
中美 83
主持 83
么 83
借此 83
充满活力 83
兹@@ 83
净@@ 83
创伤 83
制作 83
勾@@ 83
匹配 83
印度尼西亚 83
危及 83
受伤 83
坐 83
埋@@ 83
头脑 83
奠定 83
存量 83
并不@@ 83
徒@@ 83
惊奇 83
愈演愈烈 83
技术创新 83
拉美国家 83
招募 83
文化@@ 83
新一代 83
新任 83
旁@@ 83
显 83
智能 83
有待 83
标 83
植@@ 83
沉默 83
活动家 83
灰@@ 83
独一无二 83
现实主义 83
电子@@ 83
百年 83
缓 83
英里 83
被捕 83
迟@@ 83
金正恩 83
雄@@ 83
韩@@ 83
55 82
National 82
ve 82
一笔 82
世人 82
两人 82
仗 82
保持@@ 82
动乱 82
原始 82
原材料 82
可用 82
司@@ 82
国家主权 82
坚信 82
夏@@ 82
大军 82
夺走 82
始终 82
已故 82
市民 82
希拉克 82
幸 82
强硬派 82
律 82
戈登 82
戏@@ 82
握@@ 82
援@@ 82
无从 82
春@@ 82
朱@@ 82
柯@@ 82
法则 82
波多黎各 82
海洋@@ 82
灾害 82
爆炸@@ 82
甘地 82
疑虑 82
盟@@ 82
科威特 82
简化 82
经受 82
莫 82
街 82
覆辙 82
解放@@ 82
记得 82
贩@@ 82
贴 82
赶超 82
近几年 82
金融中心 82
阻挡 82
集权 82
革命性 82
顺 82
麦 82
黑人 82
1950 81
93 81
con@@ 81
eb@@ 81
ry 81
x@@ 81
一个@@ 81
上面 81
为止 81
云 81
亚太地区 81
停火 81
其余 81
其后 81
划定 81
医疗@@ 81
印度政府 81
吞并 81
外交关系 81
多万 81
安置 81
寡头 81
尾 81
展现 81
巴塞尔 81
所能 81
拙劣 81
挑选 81
数额 81
智 81
朝鲜半岛 81
极权 81
标签 81
正当 81
江@@ 81
汽车@@ 81
版本 81
现今 81
生涯 81
生计 81
田@@ 81
甲@@ 81
盛 81
直 81
筛查 81
罗姆人 81
罪犯 81
胡锦涛 81
自豪 81
英国@@ 81
萨科奇 81
被忽视 81
许 81
谎言 81
贝 81
货@@ 81
贸易谈判 81
预防性 81
领导@@ 81
饲@@ 81
麦肯锡 81
32 80
36 80
37 80
av@@ 80
东道国 80
之多 80
乘@@ 80
亚人 80
儒@@ 80
军事实力 80
初级 80
化解 80
四十年 80
国民@@ 80
大为 80
大批 80
大臣 80
妄@@ 80
宁@@ 80
定位 80
宜 80
审 80
少数派 80
希腊人 80
弗朗@@ 80
愤@@ 80
打交道 80
拒绝接受 80
摩擦 80
数以@@ 80
更深 80
本次 80
朴槿惠 80
民用 80
污@@ 80
渐进 80
渡@@ 80
理所当然 80
禁 80
种族主义 80
科学@@ 80
篇 80
经济制裁 80
综合@@ 80
良机 80
色彩 80
若干 80
蔽 80
西岸 80
西方人 80
计划@@ 80
论者 80
访 80
读@@ 80
进攻 80
雅典 80
顶尖 80
首尔 80
龙@@ 80
44 79
Q@@ 79
ff@@ 79
ord@@ 79
ton 79
Œ 79
主意 79
乎@@ 79
偶尔 79
八年 79
刺@@ 79
反应堆 79
国大党 79
场所 79
城@@ 79
外来 79
外长 79
大致 79
学术@@ 79
完全@@ 79
密集 79
小规模 79
居高不下 79
岛屿 79
平稳 79
幻@@ 79
弥合 79
影@@ 79
彼@@ 79
德国政府 79
所得 79
打败 79
找出 79
搜集 79
旅游 79
无不 79
曲 79
有所@@ 79
材 79
比起 79
涨@@ 79
照片 79
特性 79
生育率 79
界定 79
百 79
眼光 79
碎 79
稀缺 79
笔 79
类@@ 79
级@@ 79
纽黑文 79
致死 79
英格兰 79
诉求 79
资本@@ 79
跃@@ 79
返 79
违背 79
退化 79
途@@ 79
重回 79
钢@@ 79
靠拢 79
高水平 79
ir 78
ons 78
ud@@ 78
万个 78
不知 78
专业人士 78
为主 78
争 78
人能 78
伦齐 78
何处 78
佛@@ 78
促 78
做些 78
傲慢 78
兆 78
共存 78
冒@@ 78
准备金 78
分之一 78
初期 78
博 78
告终 78
咨询 78
国际金融 78
培育 78
基准 78
境@@ 78
太空 78
夸张 78
委@@ 78
学位 78
家庭收入 78
层@@ 78
屏@@ 78
征服 78
得益于 78
怎@@ 78
思想家 78
所有者 78
执政党 78
报导 78
拓展 78
挑起 78
撰写 78
敌@@ 78
星球 78
暴动 78
曝光 78
树 78
次级 78
比喻 78
法德 78
特色 78
疏@@ 78
看不到 78
短视 78
矿 78
神话 78
程@@ 78
笑@@ 78
第二轮 78
紧急@@ 78
老年人 78
肆虐 78
腹@@ 78
艾滋病毒 78
蓝图 78
行政@@ 78
调和 78
路线图 78
鲜有 78
10@@ 77
34 77
91 77
» 77
一如 77
下一代 77
不良贷款 77
世行 77
东方 77
五分之一 77
低水平 77
佩 77
关键在于 77
军政府 77
出去 77
分析家 77
原理 77
反常 77
右派 77
合法化 77
地区性 77
女儿 77
嫌 77
实实在在 77
急于 77
惯@@ 77
愿@@ 77
戏剧性 77
拉加 77
捐赠 77
搞@@ 77
旗@@ 77
无意 77
无限 77
明天 77
昔日 77
月底 77
有过 77
极高 77
欧佩克 77
歌 77
正因如此 77
治愈 77
源头 77
滞@@ 77
私营 77
立法@@ 77
箭 77
纠@@ 77
缩@@ 77
缴纳 77
臭名昭著 77
虚假 77
补 77
貌 77
踏@@ 77
达尔富尔 77
过渡@@ 77
避税 77
采访 77
院@@ 77
露@@ 77
音 77
高额 77
48 76
Ag@@ 76
Tr@@ 76
ing@@ 76
ot@@ 76
不大可能 76
世界卫生组织 76
世界秩序 76
九 76
令@@ 76
会面 76
估值 76
充分利用 76
光是 76
克制 76
六 76
凶@@ 76
十二@@ 76
另一@@ 76
合成 76
回来 76
国际化 76
始 76
寻 76
尖@@ 76
德黑兰 76
感情 76
戒@@ 76
执法 76
抬头 76
放眼 76
施罗德 76
无人 76
曲@@ 76
更进一步 76
月初 76
术 76
枯竭 76
标题 76
核国家 76
格局 76
武装力量 76
毛 76
汽油 76
消费税 76
清醒 76
狗 76
男人 76
略有 76
疾@@ 76
研@@ 76
社 76
票@@ 76
策划 76
篇@@ 76
纵@@ 76
经验@@ 76
缺 76
老板 76
肯尼迪 76
胆@@ 76
能为 76
补助 76
规 76
角@@ 76
贴@@ 76
赫尔@@ 76
跌 76
这部 76
限@@ 76
饮食 76
驱@@ 76
鲜明 76
2025 75
5000 75
Fr@@ 75
N 75
上任 75
不如说是 75
不容 75
中立 75
乳腺癌 75
亮 75
任何@@ 75
使用@@ 75
债权 75
八十年代 75
冰川 75
分钟 75
创纪录 75
化合物 75
召@@ 75
大相径庭 75
市场份额 75
店 75
战斗@@ 75
扬@@ 75
搜索 75
攻势 75
方便 75
普遍认为 75
有毒 75
枚 75
桥梁 75
沃 75
河@@ 75
漏@@ 75
独立@@ 75
环境保护 75
球员 75
琳 75
生产国 75
站不住脚 75
素@@ 75
红利 75
罪名 75
茨@@ 75
货币基金 75
返回 75
递@@ 75
通道 75
隐性 75
音@@ 75
颁布 75
高级官员 75
33 74
Gre@@ 74
Th@@ 74
ib@@ 74
il 74
ni@@ 74
th 74
ure 74
上学 74
不公 74
不敢 74
乐于 74
五大 74
代人 74
伙 74
伯格 74
偿债 74
光明 74
克里@@ 74
到处 74
十分困难 74
右@@ 74
吸取 74
塞夫 74
安全部队 74
尊敬 74
尼斯 74
局@@ 74
巨量 74
已然 74
建筑@@ 74
德里 74
志 74
忘 74
总共 74
户@@ 74
技巧 74
把@@ 74
投票权 74
拟@@ 74
据此 74
搜@@ 74
撤销 74
政治化 74
暂时性 74
最早 74
来临 74
棋@@ 74
欧洲中央银行 74
死去 74
毫无意义 74
津@@ 74
粒子 74
经费 74
见证 74
论调 74
询问 74
说到底 74
货物 74
资料 74
输家 74
辛 74
近几个月 74
配合 74
长久以来 74
门槛 74
马拉 74
高技能 74
Res@@ 73
les 73
sh@@ 73
¯ 73
一生 73
一看 73
一股 73
丝毫 73
中低收入 73
乐 73
乡 73
仅次于 73
以色列政府 73
会令 73
传染性 73
储 73
先决条件 73
克尔 73
八个 73
六个 73
几次 73
北欧国家 73
匮乏 73
去世 73
发生变化 73
叛@@ 73
各种各样 73
国际原子能机构 73
大卫 73
大笔 73
大麻 73
委 73
存活 73
寻常 73
尔斯 73
带给 73
开明 73
意在 73
抵达 73
拜@@ 73
掌@@ 73
政府@@ 73
施 73
日益严重 73
松@@ 73
构想 73
毕业 73
热衷于 73
童@@ 73
等到 73
级别 73
置@@ 73
聚 73
育@@ 73
脂肪 73
艰苦 73
蒸@@ 73
装置 73
詹姆斯 73
词汇 73
豆 73
账 73
赏 73
轨迹 73
追踪 73
里克 73
镜 73
阐述 73
零售@@ 73
非理性 73
驱使 73
EC 72
L 72
im 72
ind@@ 72
que 72
℃ 72
一任 72
一百@@ 72
不相@@ 72
主席国 72
人权@@ 72
体育@@ 72
保健 72
再融资 72
农业@@ 72
决裂 72
刀@@ 72
创造@@ 72
劣势 72
博客 72
号@@ 72
合理性 72
回购 72
垮台 72
城市@@ 72
增值税 72
壮大 72
大战 72
奖金 72
尴尬 72
巧 72
已久 72
布雷 72
度过 72
忙于 72
扮演着 72
抱@@ 72
振@@ 72
掩饰 72
揭@@ 72
播 72
政界 72
时所 72
最小 72
最强 72
服从 72
极低 72
构 72
桥 72
欧洲委员会 72
武装冲突 72
残忍 72
民意 72
漫 72
烧@@ 72
生存@@ 72
生意 72
硅谷 72
秀 72
科维奇 72
税收制度 72
稳 72
窃@@ 72
而出 72
范 72
解放军 72
赎@@ 72
赖@@ 72
赴 72
输出 72
迁移 72
镜@@ 72
静 72
非洲大陆 72
饰 72
鲁莽 72
39 71
95 71
ati@@ 71
ce 71
le@@ 71
um 71
ó 71
一回 71
一是 71
一致性 71
不善 71
不该 71
与其说是 71
与否 71
专业@@ 71
世界观 71
两难 71
事项 71
互相@@ 71
仅限于 71
兑换 71
公 71
凡@@ 71
刚 71
反馈 71
可信度 71
各项 71
名声 71
告知 71
在世界上 71
复制 71
多名 71
奥斯@@ 71
威 71
娱乐 71
家长 71
小说 71
开发银行 71
所处 71
扎 71
指挥 71
政治体制 71
斯诺 71
新生 71
独裁政权 71
猛烈 71
真理 71
知名 71
禁运 71
粮食@@ 71
系 71
而来 71
耐药性 71
耻 71
讨@@ 71
谈判@@ 71
贿赂 71
辆 71
遇@@ 71
里夫 71
队伍 71
顶层 71
额度 71
龄 71
EC@@ 70
MDG 70
三种 70
下令 70
不同于 70
中国共产党 70
丰厚 70
今 70
付出代价 70
伊朗政府 70
伯 70
伴 70
停留 70
兼并 70
冷静 70
动性 70
厄瓜多尔 70
名言 70
呆 70
国务院 70
国籍 70
圈@@ 70
大小 70
失调 70
女人 70
宽带 70
州长 70
年份 70
底层 70
弊 70
念 70
慢慢 70
戏 70
手术 70
扣 70
拍@@ 70
捉@@ 70
撤@@ 70
改革派 70
改革者 70
敲@@ 70
旋@@ 70
既有 70
有没有 70
流通 70
演说 70
炸@@ 70
燃煤 70
犯罪@@ 70
甚微 70
的是 70
盖 70
累@@ 70
罗夫 70
美洲 70
翻番 70
肉@@ 70
获利 70
赖 70
赶 70
辐射 70
远见 70
迷 70
长期@@ 70
顺利 70
高官 70
42 69
Ar@@ 69
Institute 69
K 69
ah 69
om 69
per@@ 69
三次 69
丝@@ 69
严重@@ 69
任由 69
修正案 69
偏向 69
共有 69
减小 69
分崩离析 69
卢拉 69
原则上 69
发育 69
可不是 69
含量 69
地面 69
备受 69
奴@@ 69
安南 69
宝座 69
寥@@ 69
巡@@ 69
徘徊 69
惠@@ 69
战略性 69
截@@ 69
执行官 69
拉登 69
拘@@ 69
收入水平 69
救济 69
教条 69
斯托@@ 69
无处不在 69
步入 69
洞见 69
海湾@@ 69
涌现 69
深深 69
潘基文 69
灭绝 69
疫情 69
百姓 69
益处 69
直升机 69
看出 69
福音 69
统计@@ 69
罹患 69
莱 69
萨默斯 69
薄熙来 69
蛋白质 69
谁@@ 69
谋求 69
责@@ 69
转折点 69
遭 69
醒 69
银行@@ 69
闪@@ 69
阔 69
雪上加霜 69
TTIP 68
ank@@ 68
row@@ 68
一只 68
一般@@ 68
不得@@ 68
不惜 68
不论是 68
为时@@ 68
习 68
仇@@ 68
伏 68
保卫 68
刑事法庭 68
利益集团 68
劣 68
厘@@ 68
反驳 68
可行性 68
四大 68
垂@@ 68
堆 68
塑料 68
大有 68
套@@ 68
孟加拉 68
宗教@@ 68
审核 68
宣告 68
小额 68
尘@@ 68
展望 68
席@@ 68
征 68
心脏病 68
必 68
总和 68
恐怖@@ 68
惠 68
戈 68
戈尔巴乔夫 68
所知 68
抹@@ 68
拉动 68
政体 68
数十万 68
普拉斯 68
替 68
柏林墙 68
核设施 68
梦@@ 68
欲@@ 68
此人 68
沿岸 68
法国@@ 68
激怒 68
物理学 68
独裁统治 68
相对@@ 68
科研 68
空中 68
竞选活动 68
第二次世界大战 68
等同于 68
米兰 68
终 68
绘@@ 68
缩水 68
美国财政部 68
羞辱 68
股票@@ 68
肩@@ 68
背道而驰 68
胜任 68
艾哈迈迪 68
节奏 68
荣@@ 68
订@@ 68
议院 68
讲述 68
识@@ 68
诺贝尔经济学奖 68
贫困线 68
辞@@ 68
这条 68
这点 68
遮@@ 68
顶级 68
顾虑 68
鱼类 68
Fran@@ 67
ay 67
ter 67
一百万 67
不复存在 67
东海 67
中叶 67
丽 67
举例 67
乌干达 67
事先 67
余地 67
偿 67
公务员 67
公认 67
南北 67
反美 67
发展趋势 67
可疑 67
司机 67
各类 67
否决权 67
和平谈判 67
堪 67
增量 67
处境 67
宾 67
峰值 67
带领 67
微弱 67
抑郁 67
接入 67
描@@ 67
提起 67
改革方案 67
斗@@ 67
无情 67
普通@@ 67
村 67
次要 67
清理 67
点燃 67
物流 67
电厂 67
疑@@ 67
监禁 67
磋商 67
竞@@ 67
第五 67
纪念日 67
群岛 67
翻 67
苏 67
苦苦 67
莎@@ 67
蛋 67
血液 67
规避 67
设在 67
识 67
说话 67
谷@@ 67
贫困@@ 67
贯@@ 67
贸易顺差 67
迪拜 67
选举@@ 67
道德@@ 67
金融资产 67
钦@@ 67
闭@@ 67
闲@@ 67
防 67
防范 67
非洲人 67
顾客 67
1914 66
Cl@@ 66
up 66
œ 66
一小撮 66
一日 66
上风 66
不足为奇 66
中位 66
中美洲 66
中间派 66
亚美尼亚 66
些@@ 66
亨利 66
人工智能 66
今年夏天 66
伙伴国 66
佛 66
儿@@ 66
先前 66
决策@@ 66
冷 66
分析师 66
创 66
剥削 66
印度洋 66
受到@@ 66
坏@@ 66
城镇 66
增大 66
多德 66
大大@@ 66
奈@@ 66
奉@@ 66
尼亚@@ 66
局部 66
布勒 66
幕后 66
年末 66
幽灵 66
延迟 66
径 66
惠及 66
才@@ 66
打消 66
抛 66
持续性 66
挫折 66
提供者 66
摩 66
摩根 66
撒 66
教科书 66
敢 66
景 66
替代@@ 66
最低工资 66
服用 66
机械 66
梅德韦 66
残暴 66
河流 66
流出 66
流血 66
海域 66
清单 66
渔业 66
烂@@ 66
煽@@ 66
特里@@ 66
生活@@ 66
筹 66
管理层 66
绝非易事 66
肤@@ 66
航空 66
舰 66
芝加哥 66
范@@ 66
误 66
说出 66
象征性 66
赌@@ 66
迟 66
那次 66
酷@@ 66
金正日 66
降低利率 66
降至 66
风险管理 66
马歇尔 66
高速公路 66
1971 65
下行 65
之路 65
今年@@ 65
代表@@ 65
会为 65
体重 65
倒塌 65
军力 65
创始人 65
区域性 65
南中国海 65
反之 65
发现自己 65
品牌 65
国有化 65
大体上 65
大幅提高 65
家庭@@ 65
年时 65
引向 65
微软 65
愚@@ 65
抑郁症 65
掌 65
援引 65
搭@@ 65
携带 65
新政 65
旅游业 65
是否是 65
未经 65
标志性 65
根基 65
欺诈 65
法西斯主义 65
注资 65
浮现 65
淘汰 65
深受 65
演变成 65
现出 65
男女 65
疑问 65
研究成果 65
科尔 65
究 65
管辖 65
终极 65
终止 65
继续下去 65
老牌 65
范例 65
获得成功 65
被动 65
西非 65
要点 65
观看 65
请求 65
账@@ 65
越是 65
跟踪 65
部族 65
酝酿 65
阿布@@ 65
马斯特里赫特 65
鲜@@ 65
QE 64
上来 64
不惜一切 64
不知@@ 64
中断 64
主体 64
党内 64
八国集团 64
公司@@ 64
冲 64
冲动 64
创新@@ 64
券 64
升温 64
司 64
品@@ 64
哥 64
哥伦比亚@@ 64
善意 64
回国 64
在我看来 64
塞族 64
多样 64
大大增加 64
宿@@ 64
屡@@ 64
巴林 64
布托 64
废墟 64
建成 64
建筑业 64
当成 64
影片 64
惨重 64
慢性 64
托马斯 64
捕 64
捷@@ 64
掠夺 64
插@@ 64
数十亿 64
无动于衷 64
日常生活 64
核武 64
梅 64
此事 64
殆尽 64
焦@@ 64
牙 64
特拉维夫 64
维持@@ 64
老人 64
而生 64
职业@@ 64
肺结核 64
背叛 64
薪@@ 64
财 64
货币@@ 64
赞扬 64
路上 64
辩@@ 64
这套 64
这样一来 64
远高于 64
那场 64
重返 64
阳@@ 64
随机 64
难免 64
革新 64
饭 64
骄傲 64
350 63
GCC 63
NPT 63
ens@@ 63
if@@ 63
¼ 63
Ž 63
– 63
一周 63
不振 63
个别 63
中介 63
乍@@ 63
交易所 63
仪式 63
伟@@ 63
位居 63
侵害 63
修 63
俱@@ 63
六个月 63
典范 63
制度性 63
前瞻性 63
卡斯特罗 63
发言权 63
可怜 63
合并 63
同僚 63
名叫 63
启发 63
四倍 63
回顾 63
坚实 63
堪@@ 63
外国投资 63
夜@@ 63
夸@@ 63
安全感 63
尽力 63
巧妙 63
帮@@ 63
康 63
引领 63
弗兰克 63
恐吓 63
意料 63
护者 63
敞@@ 63
族@@ 63
无非 63
日益增长 63
朝鲜@@ 63
权主义 63
染@@ 63
核反应堆 63
泄漏 63
法兰克福 63
渗透 63
渺茫 63
滋生 63
煤 63
爆@@ 63
物理 63
理智 63
登上 63
盈@@ 63
省份 63
硬着陆 63
秋天 63
精神病 63
脊髓灰质炎 63
腐@@ 63
自卫 63
薄弱 63
装备 63
西班牙@@ 63
解决之道 63
认真对待 63
贪@@ 63
赌博 63
赞助 63
足球@@ 63
跑 63
过来 63
送到 63
邮@@ 63
郎 63
金属 63
钢铁 63
锡@@ 63
阅读 63
附加值 63
随处可见 63
音乐 63
预想 63
DA 62
FDI 62
II 62
Le@@ 62
Ph@@ 62
Uni@@ 62
res@@ 62
v 62
一组 62
不啻 62
不容@@ 62
为重要 62
人道 62
从来不 62
以内 62
会计 62
依 62
侨民 62
保住 62
健康状况 62
催@@ 62
克劳@@ 62
克格勃 62
公开@@ 62
内政 62
写入 62
农 62
冷漠 62
分类 62
医疗卫生 62
可言 62
吉尔@@ 62
同行 62
吸纳 62
咄@@ 62
器官 62
在历史上 62
基因@@ 62
堆@@ 62
填@@ 62
奔@@ 62
好得多 62
媒@@ 62
宁 62
宁愿 62
定居 62
宪法法院 62
屈服 62
岛@@ 62
市场化 62
开创 62
异见 62
引出 62
弥@@ 62
得起 62
恶性 62
抉择 62
拖入 62
拿到 62
挤@@ 62
挤兑 62
捐助 62
损 62
换言之 62
敢于 62
无条件 62
景象 62
最优 62
末日 62
本能 62
村@@ 62
板@@ 62
极具 62
植根于 62
榜 62
沙漠 62
没错 62
泛滥 62
洞@@ 62
灭@@ 62
炼@@ 62
玉米 62
相符 62
纯@@ 62
结婚 62
缔@@ 62
缠@@ 62
美国银行 62
耗资 62
聚焦 62
草 62
表态 62
袋 62
说辞 62
责任@@ 62
赔@@ 62
赚取 62
赶上 62
跟@@ 62
逢 62
金融公司 62
铭记 62
长期存在 62
长期投资 62
陷 62
集体行动 62
页 62
额@@ 62
43 61
And@@ 61
Bar@@ 61
ES@@ 61
FS@@ 61
IT 61
NP 61
ach@@ 61
one 61
pl@@ 61
― 61
不难 61
两国@@ 61
两项 61
严重性 61
临时性 61
亚努 61
产业@@ 61
企@@ 61
优点 61
信徒 61
值@@ 61
全球@@ 61
公然 61
出资@@ 61
分为 61
分支 61
别国 61
区间 61
十亿 61
单边 61
厚@@ 61
叶@@ 61
同胞 61
后面 61
哈佛 61
四分五裂 61
回忆 61
困@@ 61
国会议员 61
地为 61
大使馆 61
太大而 61
失业者 61
奥尔@@ 61
始@@ 61
宝@@ 61
封锁 61
小泉 61
局限性 61
屈@@ 61
已知 61
常任理事 61
序@@ 61
延缓 61
弃@@ 61
得主 61
悔 61
承 61
把握 61
抑或 61
拉斯 61
撕@@ 61
新药 61
无序 61
时常 61
暴露出 61
校@@ 61
核子 61
核心@@ 61
检察官 61
欲 61
港@@ 61
澄清 61
灵 61
犹@@ 61
痴@@ 61
盛行 61
看着 61
种族隔离 61
穿越 61
第一位 61
筹资 61
糊@@ 61
约瑟夫 61
纾 61
经济区 61
续 61
维和 61
缺点 61
罪恶 61
考量 61
腾@@ 61
节能 61
菜 61
董事 61
蓬勃发展 61
触及 61
言辞 61
诊所 61
谈话 61
践踏 61
辞 61
运气 61
这使 61
迫 61
逃脱 61
逝 61
遍@@ 61
闹剧 61
非洲@@ 61
馆 61
1982 60
41 60
Mon@@ 60
Sy@@ 60
art 60
一连串 60
两位数 60
伪善 60
估@@ 60
光靠 60
关键@@ 60
几百年 60
出口商 60
划 60
划分 60
加重 60
勃 60
匹@@ 60
华沙 60
卓越 60
历 60
叫做 60
向下 60
囤积 60
坝 60
垃圾 60
基金组织 60
大坝 60
大楼 60
夫妇 60
奋斗 60
完 60
官僚机构 60
封 60
将要 60
岸 60
崇拜 60
平常 60
彰显 60
忍@@ 60
快乐 60
怒@@ 60
感谢 60
慎@@ 60
我国 60
护理 60
携手 60
攫取 60
敏@@ 60
新鲜 60
普尔 60
景@@ 60
曼德拉 60
有利可图 60
未知 60
核扩散 60
毁掉 60
民主政体 60
法定 60
理想@@ 60
瓦尔 60
目的地 60
盯住 60
直至 60
相关性 60
神圣 60
第三次 60
算不上 60
继承@@ 60
自治@@ 60
蓝@@ 60
蔓延到 60
观众 60
视角 60
议案 60
起初 60
轰@@ 60
轻 60
这件 60
遭@@ 60
重心 60
难民营 60
霍 60
靠近 60
颗 60
首脑会议 60
Di@@ 59
ver@@ 59
í 59
‚ 59
一波 59
上半年 59
世界大战 59
之手 59
伊始 59
会上 59
伪 59
低廉 59
健全 59
克斯坦 59
共同点 59
关注点 59
兴奋 59
军备 59
况@@ 59
凭@@ 59
加利福尼亚 59
卢 59
双 59
反击 59
反犹主义 59
变动 59
君主 59
品质 59
噩梦 59
四分之三 59
固定汇率 59
地被 59
坐在 59
处置 59
实现目标 59
审议 59
尤 59
工人@@ 59
左 59
开战 59
彻@@ 59
德国@@ 59
忧 59
悲惨 59
意大利人 59
或多或少 59
战役 59
戴维 59
拉低 59
招 59
拥 59
掣肘 59
改良 59
数字化 59
料@@ 59
新西兰 59
日趋 59
时才 59
极权主义 59
枢纽 59
核弹 59
欧亚 59
歧@@ 59
津巴布韦 59
滑向 59
相互依存 59
相近 59
礁 59
移动电话 59
绕过 59
绝不会 59
维系 59
编辑 59
耶 59
肯@@ 59
自称 59
荣誉 59
行者 59
覆盖@@ 59
诽谤 59
贸 59
迎合 59
这座 59
通货膨胀率 59
遍布 59
里斯 59
钞 59
链@@ 59
问责@@ 59
附加 59
须 59
预测@@ 59
1929 58
51 58
Ad@@ 58
Bern@@ 58
af@@ 58
ili@@ 58
ker 58
ment 58
re 58
上将 58
两场 58
中部 58
主导@@ 58
亏损 58
互联 58
产品@@ 58
会以 58
低工资 58
信任@@ 58
充其量 58
党员 58
决 58
创业@@ 58
初始 58
利基 58
区区 58
卡特 58
危 58
危险性 58
后尘 58
唯有 58
困惑 58
圆@@ 58
地产 58
培@@ 58
大部 58
头条 58
学派 58
巴尔干@@ 58
平庸 58
恢复@@ 58
想象力 58
戈尔 58
执 58
承担责任 58
投向 58
拔 58
拔@@ 58
摄氏度 58
摆在 58
摊@@ 58
政策@@ 58
期权 58
杯 58
桌 58
沿着 58
海滩 58
添加 58
火箭 58
牵涉到 58
疏远 58
相似之处 58
看见 58
碰@@ 58
祸 58
离岸 58
篮子 58
红 58
纽约@@ 58
耀 58
自上而下 58
芽 58
裁定 58
证券化 58
调节 58
走私 58
轴心 58
辅之以 58
道德风险 58
银行贷款 58
障 58
高峰 58
高盛 58
鸡 58
鸦片 58
齐心协力 58
? 57
Af@@ 57
Ed@@ 57
IP@@ 57
are 57
° 57
一人 57
一夜之间 57
为人知 57
买卖 57
事后 57
伊尔 57
侨汇 57
倾斜 57
关乎 57
其一 57
军事政变 57
军人 57
几位 57
剂量 57
南美 57
原先 57
向来 57
命名 57
喷@@ 57
外人 57
够 57
孤立主义 57
定向 57
定律 57
宪 57
尼尔 57
展 57
巧@@ 57
帝@@ 57
微乎其微 57
微观 57
心理@@ 57
怒 57
怨 57
恋 57
扣@@ 57
抗击 57
指挥官 57
摆 57
摇摇欲坠 57
收取 57
政见 57
数千 57
无所作为 57
景气 57
智力 57
最低@@ 57
朗 57
案@@ 57
欧美 57
法制 57
波及 57
测算 57
混淆 57
熊@@ 57
牌@@ 57
物理学家 57
看护 57
米尔 57
细菌 57
美好@@ 57
美日 57
老化 57
耕@@ 57
联网 57
自然灾害 57
营商 57
蒙蒂 57
薪水 57
裂 57
规律 57
视作 57
贸易壁垒 57
过往 57
过早 57
返@@ 57
迫在眉睫 57
重获 57
金融工具 57
隐瞒 57
马拉@@ 57
鸿沟 57
00 56
IS 56
World 56
ie 56
igh@@ 56
man@@ 56
oun@@ 56
ra 56
{ 56
¹ 56
上下 56
不切实际 56
不合理 56
与日俱增 56
丢掉 56
两极分化 56
临床试验 56
买家 56
人体 56
人类@@ 56
仅靠 56
优质 56
传 56
佐 56
何 56
俄国人 56
候 56
借鉴 56
先发制人 56
先是 56
养老 56
出发 56
利斯 56
加尔 56
劲 56
劳动生产率 56
勉强 56
医保 56
参与率 56
参选 56
发生@@ 56
发言人 56
叶 56
响@@ 56
基辛格 56
复杂化 56
外资 56
奥塞@@ 56
好比 56
好转 56
妹 56
姗@@ 56
孕@@ 56
富豪 56
带到 56
并不需要 56
抵押品 56
授@@ 56
收支平衡 56
教士 56
教学 56
斯克 56
无异于 56
替换 56
杰出 56
欠缺 56
死灰复燃 56
没完没了 56
油气 56
浓@@ 56
海地区 56
生长 56
眼里 56
科学研究 56
约翰逊 56
纳税 56
终身 56
结果@@ 56
羞@@ 56
脑 56
蔑视 56
虚弱 56
行径 56
见到 56
览 56
赞 56
蹂躏 56
退休年龄 56
逃税 56
针 56
针对性 56
间谍 56
题@@ 56
高油价 56
鸡@@ 56
1986 55
Comm@@ 55
Har@@ 55
erv@@ 55
id 55
ist@@ 55
下半年 55
下属 55
不能@@ 55
严格@@ 55
严重威胁 55
书籍 55
亡@@ 55
企业@@ 55
修补 55
储@@ 55
凌驾于 55
出任 55
出国 55
出路 55
利用@@ 55
劣@@ 55
动议 55
劳动密集型 55
包装 55
单个 55
占有 55
占领@@ 55
卢森堡 55
厉@@ 55
变量 55
各不相同 55
名词 55
员@@ 55
唤@@ 55
四国 55
固然 55
国防部 55
图景 55
多于 55
大不相同 55
天生 55
威尔逊 55
实证 55
就职 55
州@@ 55
差不多 55
库存 55
恐怖活动 55
患@@ 55
成年 55
所属 55
打着 55
投机者 55
挤出 55
教义 55
教堂 55
日益@@ 55
昂山 55
板球 55
样子 55
氦 55
汗@@ 55
法郎 55
波罗的海 55
洋 55
浮动 55
海峡 55
涅 55
游击队 55
灌溉 55
牢 55
笼@@ 55
经常@@ 55
统计数据 55
缓@@ 55
艘 55
茶@@ 55
行动计划 55
诊 55
财长 55
资源@@ 55
超国家 55
远程 55
迪克 55
避难 55
酒@@ 55
重现 55
野 55
金斯 55
锐@@ 55
际 55
靖国神社 55
预先 55
预见到 55
颇@@ 55
驾驶 55
黑客 55
鼓动 55
194@@ 54
1968 54
197@@ 54
1981 54
1987 54
54 54
Economic 54
Man@@ 54
SA 54
Un@@ 54
able 54
ect 54
ess 54
ot 54
‰ 54
一时 54
不道德 54
亏 54
亚马逊 54
仅为 54
付诸@@ 54
会见 54
余额 54
信条 54
值得注意 54
入狱 54
公民@@ 54
冠军 54
列强 54
加工 54
卫 54
发酵 54
可悲 54
听说 54
和谈 54
在此之前 54
坐视 54
基本权利 54
堕落 54
塞拉利昂 54
安德@@ 54
宏@@ 54
实时 54
实用主义 54
就任 54
己@@ 54
巴勒斯坦@@ 54
帐户 54
帕 54
幼@@ 54
弹道导弹 54
强权 54
德拉 54
忘@@ 54
忙 54
情报局 54
愉快 54
扶@@ 54
技术性 54
拿破仑 54
挥霍 54
据称 54
提倡 54
援 54
搁置 54
放心 54
日期 54
普通人 54
暴力@@ 54
暴涨 54
杀虫剂 54
权势 54
权限 54
极少数 54
楼 54
氧化@@ 54
污 54
沿海 54
波斯湾 54
波特 54
洋@@ 54
清真寺 54
滋@@ 54
漠@@ 54
熊 54
特使 54
现存 54
用以 54
男孩 54
皆@@ 54
盲@@ 54
破坏力 54
竭 54
端@@ 54
第一次世界大战 54
第二种 54
纯属 54
绑 54
缴@@ 54
罕 54
耸@@ 54
脉 54
芬 54
花旗@@ 54
萎靡不振 54
营养@@ 54
蕴@@ 54
行动者 54
衡@@ 54
裁军 54
许诺 54
论断 54
诺贝@@ 54
资不抵债 54
过热 54
近一半 54
进口国 54
进行谈判 54
迷失 54
醒@@ 54
重重@@ 54
钓鱼岛 54
队@@ 54
阿联酋 54
马尔@@ 54
高级@@ 54
67 53
900 53
AR@@ 53
CA@@ 53
George 53
Ind@@ 53
ash@@ 53
ber@@ 53
ric@@ 53
tic@@ 53
一次性 53
万名 53
上去 53
不时 53
两者之间 53
之久 53
亚尔 53
人民党 53
伊斯坦布尔 53
伎俩 53
佛教 53
佩雷斯 53
停顿 53
偶然 53
催化剂 53
充满@@ 53
兰人 53
冬@@ 53
刀 53
利比里亚 53
力图 53
加息 53
劫 53
单边主义 53
南欧国家 53
卡拉 53
印度人民党 53
压抑 53
取而代之 53
吓@@ 53
呈现出 53
品种 53
喊 53
址 53
均@@ 53
坚守 53
多得多 53
少量 53
市政 53
引人@@ 53
弗拉基米尔 53
德斯 53
忧@@ 53
性行为 53
恐 53
恰好 53
批@@ 53
抓@@ 53
抵挡 53
振兴 53
擅长 53
政治危机 53
无限期 53
时至今日 53
明确@@ 53
晓 53
智库 53
杰 53
桌@@ 53
段时间 53
每周 53
每桶 53
油田 53
波兰人 53
渐进@@ 53
炮@@ 53
猪 53
现场 53
男子 53
祖先 53
突变 53
紧迫性 53
累计 53
纪念@@ 53
罗斯 53
耳 53
腿 53
自卫队 53
自我@@ 53
自行@@ 53
艾 53
蓄@@ 53
街@@ 53
表演 53
被控 53
覆@@ 53
解雇 53
象@@ 53
负担@@ 53
轻微 53
辉煌 53
输送 53
迁 53
遗忘 53
钻石 53
银@@ 53
阈值 53
阿勒颇 53
除外 53
雪 53
高位 53
1947 52
AI@@ 52
Ac@@ 52
Bo@@ 52
Council 52
Int@@ 52
ell 52
ern@@ 52
ill 52
our@@ 52
par@@ 52
por@@ 52
七 52
丈夫 52
不佳 52
不快 52
乌里韦 52
亲密 52
令人鼓舞 52
似的 52
侵入 52
信用卡 52
全国性 52
共担 52
农产品 52
几率 52
出身 52
初步 52
利性 52
利益冲突 52
医 52
医药 52
半叶 52
双边贸易 52
变异 52
史无前例 52
合格 52
吞@@ 52
哈里发 52
团结起来 52
坚持@@ 52
垮 52
埃尔 52
处决 52
大谈 52
天堂 52
媲美 52
宗 52
宪政 52
对准 52
尺 52
川 52
左@@ 52
平方@@ 52
弱小 52
总能 52
悬而未决 52
懂 52
批评家 52
招聘 52
挺@@ 52
摸@@ 52
放宽 52
政局 52
数据库 52
时间表 52
朔伊 52
权重 52
李克强 52
格林 52
梯 52
楼@@ 52
民主选举 52
气氛 52
游戏规则 52
演习 52
犹太@@ 52
瓜 52
瓦哈比 52
略微 52
碎片 52
禁忌 52
空白 52
纪 52
绝对@@ 52
缘 52
肥 52
肿瘤 52
脸@@ 52
腕 52
舞 52
良多 52
艺术家 52
营销 52
螺旋 52
表决 52
觉@@ 52
讨厌 52
读者 52
赞美 52
身后 52
轻而易举 52
辅@@ 52
迟迟 52
适应性 52
透露 52
遵@@ 52
避开 52
酸 52
重新分配 52
锁 52
阻@@ 52
隔绝 52
集会 52
预料到 52
飘@@ 52
饮用水 52
马克思 52
高利率 52
黄金@@ 52
47 51
64 51
77 51
Ass@@ 51
ESM 51
Tran@@ 51
amm@@ 51
anc@@ 51
ary 51
ech@@ 51
ell@@ 51
for@@ 51
ue 51
一类 51
不去 51
不满情绪 51
世卫 51
中将 51
人口数量 51
人质 51
件@@ 51
优化 51
倡导 51
偿还债务 51
储备@@ 51
免除 51
公共利益 51
共同市场 51
共和 51
再生 51
军事化 51
减贫 51
几 51
制造@@ 51
前夕 51
剧变 51
勤@@ 51
协@@ 51
卓著 51
博科 51
厂@@ 51
历史记录 51
原料 51
后期 51
含有 51
听众 51
囊@@ 51
土耳其人 51
坦克 51
型@@ 51
基点 51
基础@@ 51
外包 51
大事 51
大面积 51
太大 51
太阳 51
夺取 51
奶@@ 51
委托 51
婚@@ 51
宗教信仰 51
宜@@ 51
宣誓 51
尊@@ 51
小企业 51
小儿麻痹症 51
峰 51
总之 51
悠久 51
惯例 51
愈@@ 51
截止 51
批判 51
拉脱维亚 51
持有者 51
挫败 51
提供援助 51
数十@@ 51
数目 51
新书 51
旁 51
无助于 51
旨 51
明朗 51
易事 51
普遍存在 51
最能 51
有余 51
本国货币 51
某种意义 51
汉 51
涌 51
激情 51
灯@@ 51
炮 51
炼 51
烈@@ 51
热烈 51
理查德 51
申根 51
电动汽车 51
癌@@ 51
监视 51
盗@@ 51
盲 51
移交 51
纽约时报 51
综@@ 51
耻辱 51
脏 51
自力更生 51
自满 51
衣 51
课税 51
谬误 51
贾 51
资深 51
赤裸裸 51
起着 51
越过 51
跃 51
重中之重 51
锁定 51
面目 51
马丁 51
骗@@ 51
高度@@ 51
鼓@@ 51
1933 50
1975 50
46 50
57 50
AKP 50
CP@@ 50
Chri@@ 50
J 50
OP@@ 50
of@@ 50
ont 50
ow 50
te@@ 50
不休 50
不出@@ 50
不可逆转 50
不无道理 50
两国关系 50
人性 50
仿佛 50
伊斯兰共和国 50
伍@@ 50
保加利亚 50
保密 50
倘若 50
像@@ 50
克什米尔 50
免遭 50
冰岛 50
利差 50
化学@@ 50
印度教 50
另一方 50
右 50
同期 50
名列 50
商店 50
困难重重 50
国际事务 50
地理@@ 50
孕 50
审计 50
宣传@@ 50
富兰克林 50
对应 50
屋@@ 50
岌岌可危 50
崇@@ 50
巨资 50
并不比 50
得出结论 50
心目 50
怕 50
愈加 50
投票率 50
捐款 50
放贷 50
故 50
敏感@@ 50
新近 50
新高 50
无法控制 50
旧金山 50
普世 50
暗杀 50
更迭 50
杀手 50
格拉斯 50
殖民主义 50
每当 50
沃伦 50
流亡 50
渗@@ 50
激 50
激励机制 50
激进分子 50
牛津 50
物价指数 50
独有 50
狱 50
用水 50
由此@@ 50
电力@@ 50
电站 50
疗@@ 50
盗 50
盲目 50
稍 50
第一种 50
第三方 50
第五@@ 50
精心 50
糖@@ 50
育 50
蚊帐 50
融 50
融化 50
袖手旁观 50
误导性 50
谈到 50
谓 50
负债@@ 50
走势 50
起源 50
身边 50
迈克尔 50
这才 50
连贯 50
追加 50
钞票 50
钟 50
销售@@ 50
阻 50
阿塞拜疆 50
附带 50
隆@@ 50
雪@@ 50
雾 50
青 50
驱动力 50
驻扎 50
验证 50
1985 49
49 49
99 49
Act 49
David 49
ECB 49
red@@ 49
ven@@ 49
一点@@ 49
三位 49
上市 49
下面 49
不在@@ 49
不至于 49
专业化 49
业绩 49
中华@@ 49
乃是 49
之初 49
乌拉圭 49
九个 49
二世 49
五十年 49
亚国家 49
人口老龄化 49
仍能 49
令人振奋 49
伯特 49
侮辱 49
僧@@ 49
先锋 49
免税 49
内政@@ 49
农作物 49
协调@@ 49
卢比 49
同步 49
听取 49
嘲@@ 49
回升 49
回忆@@ 49
回收 49
国有@@ 49
地向 49
堵@@ 49
多方面 49
多种@@ 49
多达 49
天主教徒 49
失踪 49
如此@@ 49
始作俑者 49
客观 49
宣战 49
寡@@ 49
尸@@ 49
层出不穷 49
崭新 49
巧合 49
市场准入 49
帝 49
强度 49
总的来说 49
成本@@ 49
所起 49
托尼 49
技@@ 49
拉宾 49
拨款 49
捍卫者 49
捷克共和国 49
斯堪的纳维亚 49
昆@@ 49
普遍@@ 49
暖@@ 49
暴政 49
更广 49
有所增加 49
杀人 49
核武库 49
格斯 49
次贷 49
武装@@ 49
殖民@@ 49
法国政府 49
波动性 49
流行@@ 49
消退 49
液@@ 49
淹没 49
湾 49
爱国主义 49
球队 49
用作 49
用处 49
疗 49
瘾 49
税基 49
竟然 49
简称 49
算盘 49
管理局 49
米歇尔 49
网上 49
罚 49
罚款 49
罪魁祸首 49
自相矛盾 49
舞弊 49
航 49
节省 49
薄 49
虔诚 49
街道 49
誉@@ 49
贷 49
资本外逃 49
跟进 49
轮值 49
这句 49
遇刺 49
遗留@@ 49
钉@@ 49
银行行长 49
错觉 49
阿拉维 49
马里奥 49
骗 49
高尚 49
鲨鱼 49
130 48
1978 48
53 48
58 48
CB@@ 48
CDS 48
H 48
Pac@@ 48
Soci@@ 48
Twitter 48
amp@@ 48
ard@@ 48
ency 48
gan@@ 48
ru@@ 48
tin@@ 48
­ 48
三项 48
上诉 48
下调 48
不丹 48
不住 48
两家 48
中国崛起 48
中所 48
乘数 48
习惯于 48
乱象 48
井 48
些许 48
亦@@ 48
人意 48
仍旧 48
他会 48
代表团 48
以免 48
份@@ 48
低效率 48
保存 48
公信力 48
关门 48
兴建 48
冒犯 48
写照 48
凶 48
分裂@@ 48
刘晓波 48
刚刚开始 48
刻意 48
卡尼 48
卡特尔 48
卢布 48
召集 48
同理 48
否 48
哀@@ 48
商务 48
圣战者 48
坠@@ 48
坡 48
增加@@ 48
大权 48
天安@@ 48
天赋 48
夺去 48
宇@@ 48
安慰 48
官僚主义 48
宫 48
崩@@ 48
己 48
巴罗 48
度假 48
引进 48
心理学 48
忠@@ 48
恨 48
息息相关 48
患有 48
您 48
惑 48
截至 48
抑@@ 48
拥挤 48
挥@@ 48
推测 48
摇摆 48
撒@@ 48
支点 48
数以百万计 48
新生儿 48
新鲜@@ 48
旦 48
明智地 48
更有@@ 48
校园 48
比索 48
氧@@ 48
沙文主义 48
波士顿 48
泰米尔 48
消极影响 48
涌向 48
烈 48
现已 48
矛头 48
短期内 48
科技@@ 48
积极参与 48
系统@@ 48
终将 48
缔造 48
职业生涯 48
肾@@ 48
自由贸易区 48
舍 48
舍@@ 48
航班 48
衷 48
视频 48
警示 48
诚信 48
诫 48
诺言 48
谦@@ 48
货币化 48
超额 48
足轻重 48
达尔 48
远景 48
里面 48
重新考虑 48
重蹈 48
银行资本 48
错过 48
降临 48
降级 48
限额 48
霸主 48
顺差 48
驻军 48
骗局 48
齐聚 48
1948 47
1962 47
56 47
59 47
62 47
Climate 47
HIV 47
NA@@ 47
ew 47
ice 47
iz@@ 47
los 47
ta@@ 47
‡ 47
不动产 47
不懈 47
不禁 47
与会者 47
中东@@ 47
中东国家 47
亟@@ 47
亲眼@@ 47
以使 47
任职 47
低点 47
例@@ 47
保持稳定 47
假装 47
偏执 47
兜@@ 47
共鸣 47
列入 47
利库@@ 47
剔除 47
力支持 47
助推 47
助益 47
劫持 47
半球 47
卜 47
发电厂 47
取得@@ 47
叙利亚人 47
句 47
吓 47
国企 47
国度 47
国际收支 47
墨西哥城 47
外汇市场 47
大体 47
宽 47
寄希望于 47
尊 47
屈服于 47
履@@ 47
巴以 47
巴解组织 47
布拉格 47
年会 47
序列 47
开辟 47
强行 47
彩@@ 47
彼得 47
心中 47
怪异 47
总而言之 47
悲伤 47
战线 47
找@@ 47
捕捉 47
推理 47
政府部门 47
文学 47
日报 47
春 47
曙光 47
服装 47
李光耀 47
极端@@ 47
构成威胁 47
核裁军 47
毁@@ 47
氢@@ 47
污染@@ 47
济 47
涌@@ 47
潘@@ 47
灵魂 47
牺牲品 47
现成 47
球迷 47
畅@@ 47
盎格鲁 47
眠 47
磁@@ 47
积压 47
童 47
笔者 47
第三种 47
等级 47
答@@ 47
结成 47
罗纳德 47
腐败@@ 47
艰@@ 47
萨达特 47
裙@@ 47
观察员 47
触 47
讯@@ 47
负有 47
财阀 47
贯彻 47
赚钱 47
越来越少 47
达尔文 47
迈 47
运输@@ 47
近于零 47
迟早 47
通向 47
酒店 47
阵 47
随意 47
难以置信 47
难民@@ 47
露 47
频率 47
颠@@ 47
驳斥 47
鲜 47
黯淡 47
Cor@@ 46
Econom@@ 46
For@@ 46
GDP@@ 46
IPCC 46
Le 46
Moh@@ 46
X@@ 46
arg@@ 46
ear@@ 46
ood 46
sk@@ 46
˜ 46
一员 46
不断@@ 46
不良@@ 46
两国之间 46
两国政府 46
主办 46
乌克兰人 46
亚洲地区 46
值得@@ 46
元首 46
克森 46
克罗地亚 46
克逊 46
公园 46
关系@@ 46
其二 46
内外 46
内尔 46
分离@@ 46
力求 46
劫@@ 46
劳力 46
勘探 46
十个 46
十足 46
卡梅@@ 46
危地马拉 46
卸任 46
取缔 46
史蒂@@ 46
咖@@ 46
团结一致 46
国土 46
圣诞@@ 46
复国主义 46
外交部 46
天才 46
娅 46
孔@@ 46
实际工资 46
密度 46
尽量 46
尾@@ 46
屈从 46
巴希尔 46
布鲁@@ 46
带动 46
幕@@ 46
廷@@ 46
忠实 46
总有一天 46
慰@@ 46
成人 46
抗拒 46
折扣 46
抚@@ 46
拖 46
招致 46
搬@@ 46
撞 46
斯堡 46
斯蒂@@ 46
新世界 46
施加压力 46
旋 46
术语 46
构@@ 46
核聚变 46
款项 46
歇@@ 46
正规 46
残 46
水域 46
没人 46
沦@@ 46
沾@@ 46
泛@@ 46
注 46
流感 46
浓缩铀 46
消费量 46
演 46
烧 46
珠@@ 46
甩@@ 46
申@@ 46
电信 46
畏@@ 46
相去甚远 46
粮@@ 46
糟 46
素季 46
约国 46
细分 46
经营@@ 46
维艰 46
罗格 46
联合行动 46
聘@@ 46
胞@@ 46
脱贫 46
芬@@ 46
荡 46
莫拉莱 46
裂痕 46
觉醒 46
试 46
调停 46
貌似 46
购物 46
资本家 46
赞赏 46
转为 46
迎@@ 46
这片 46
迟缓 46
适度 46
遗传@@ 46
问题@@ 46
阿尔巴尼亚 46
陷入困境 46
非正规 46
骤@@ 46
高中 46
高点 46
鹰派 46
麦凯恩 46
默许 46
鼓吹者 46
180 45
1988 45
3000 45
63 45
Commission 45
Fre@@ 45
Joseph 45
NCD 45
Sp@@ 45
US 45
est@@ 45
ew@@ 45
ge 45
min@@ 45
omp@@ 45
ran@@ 45
st 45
sti@@ 45
} 45
 45
½ 45
一去@@ 45
一所 45
三十 45
下注 45
不可思议 45
两周 45
两天 45
严 45
中东欧 45
主教 45
之战 45
乌 45
乔 45
五年@@ 45
亚当 45
亿吨 45
代孕 45
代表性 45
伏@@ 45
佛罗里@@ 45
使用者 45
例证 45
侧@@ 45
倾听 45
偶 45
公顷 45
共同努力 45
军事冲突 45
出生率 45
出访 45
击者 45
创新者 45
别处 45
加紧 45
勇@@ 45
勤 45
十倍 45
午餐 45
卢卡@@ 45
参与@@ 45
叠 45
可笑 45
园@@ 45
圣地亚哥 45
地方@@ 45
坏事 45
堵 45
复仇 45
大片 45
大马士革 45
失效 45
委会 45
媒 45
实例 45
巨人 45
广受 45
庇@@ 45
开出 45
弊端 45
弱势群体 45
当初 45
往常 45
怀疑派 45
悟 45
悦 45
情报部门 45
慰 45
憎恨 45
抗议者 45
拨@@ 45
拼@@ 45
掏@@ 45
放射@@ 45
整套 45
斯密 45
新疆 45
无误 45
星期@@ 45
架@@ 45
某人 45
样本 45
欲望 45
每月 45
汽@@ 45
流行病 45
消亡 45
游客 45
激活 45
牢记 45
特里谢 45
犹太教 45
玩 45
现金@@ 45
生理 45
申科 45
番 45
眼看 45
神秘 45
私营@@ 45
积 45
类别 45
红线 45
纺织@@ 45
织 45
统 45
缩 45
罢工 45
耶伦 45
联手 45
肝@@ 45
肮脏 45
脸 45
腰包 45
航空@@ 45
蛋白 45
衔 45
西亚 45
计算机@@ 45
认清 45
设@@ 45
详@@ 45
请@@ 45
调低 45
贝鲁特 45
贡@@ 45
赖以 45
赢@@ 45
跑@@ 45
躁 45
输入 45
运送 45
逊@@ 45
递交 45
金氏 45
长官 45
闻@@ 45
阐@@ 45
阿卜杜勒 45
隶@@ 45
非洲地区 45
面孔 45
领取 45
领地 45
食品安全 45
马尔 45
鲸 45
110 44
1972 44
66 44
Al 44
BM 44
Mc@@ 44
Thomas 44
ani 44
oli@@ 44
ter@@ 44
ya 44
ã 44
一同 44
一大半 44
一手 44
与其说 44
东北亚 44
个性 44
中日 44
临 44
主人 44
乌托邦 44
乡村 44
乱局 44
产业政策 44
伴侣 44
伸@@ 44
全职 44
内部@@ 44
冠@@ 44
凝聚 44
利亚@@ 44
制度化 44
加利福尼亚州 44
加拉@@ 44
势力范围 44
匿@@ 44
压缩 44
参考 44
双边@@ 44
发动战争 44
各自为政 44
回家 44
国际清算银行 44
圣 44
垄断@@ 44
增长@@ 44
处罚 44
备忘录 44
大自然 44
大革命 44
天真 44
姑@@ 44
婚 44
学到 44
学界 44
宝 44
实用 44
宫@@ 44
寒@@ 44
市值 44
布拉@@ 44
广泛@@ 44
庄@@ 44
庄稼 44
德克萨@@ 44
怀疑@@ 44
怎么办 44
怨@@ 44
总会 44
总收入 44
慢性病 44
扣除 44
扶持 44
持续时间 44
摸 44
撒钱 44
收支 44
政治经济 44
无人@@ 44
暴乱 44
杂 44
果实 44
正义@@ 44
民主联盟 44
水准 44
沉迷于 44
法令 44
流传 44
浮@@ 44
深渊 44
潜艇 44
烂 44
热带 44
爱因斯坦 44
物品 44
犬@@ 44
独自 44
猖獗 44
猜@@ 44
畜 44
盾 44
砍伐 44
私人资本 44
策@@ 44
素质 44
纳米比亚 44
经济模型 44
维克 44
缝 44
网络空间 44
署@@ 44
美金 44
肺炎 44
能源供应 44
能源需求 44
脚步 44
自发 44
自有 44
船只 44
艺 44
融@@ 44
被判 44
裕 44
视野 44
评判 44
试想 44
象征意义 44
贵@@ 44
赌 44
赠@@ 44
起源于 44
路易@@ 44
跻身 44
这两项 44
远非 44
追随 44
退回 44
逆 44
逆差 44
遇 44
闻名 44
降息 44
震荡 44
非法@@ 44
领土@@ 44
食品@@ 44
麦克@@ 44
BRCA@@ 43
Bl@@ 43
IR@@ 43
James 43
Partnership 43
Poli@@ 43
Rep@@ 43
Rev@@ 43
TC 43
all 43
ang@@ 43
em 43
illi@@ 43
tain@@ 43
un 43
ur 43
¿ 43
á 43
ˆ 43
七十年代 43
不成@@ 43
不管怎样 43
丑@@ 43
世界级 43
东正教 43
丧命 43
中起 43
之力 43
之源 43
人工 43
从不 43
以致于 43
仪 43
似@@ 43
佩斯 43
免不了 43
公民权 43
共产@@ 43
关切 43
内罗毕 43
军事基地 43
军基地 43
几种 43
切尼 43
割 43
卑@@ 43
卖出 43
博物馆 43
原子弹 43
参拜 43
受制于 43
叛乱@@ 43
可比 43
合力 43
君主@@ 43
周边国家 43
唱@@ 43
商业利益 43
善于 43
四处 43
固有 43
国旗 43
在一起 43
大获全胜 43
大跌 43
太高 43
失业问题 43
头巾 43
奥斯曼帝国 43
嫉@@ 43
小于 43
尔森 43
工资水平 43
年收入 43
幻 43
强健 43
彼此之间 43
念@@ 43
恼 43
悬@@ 43
感知 43
手下 43
扑@@ 43
扶贫 43
投机性 43
抛出 43
抵抗@@ 43
拒@@ 43
换成 43
排挤 43
提炼 43
摒弃 43
撤退 43
政治学家 43
施行 43
无尽 43
日后 43
时报 43
更是如此 43
更替 43
有意识 43
松散 43
枪支 43
殊@@ 43
殴打 43
水泥 43
水源 43
法西斯 43
洁@@ 43
消费品 43
渐 43
父@@ 43
牧师 43
状@@ 43
理论家 43
申请@@ 43
疼痛 43
穆特 43
窃 43
笨@@ 43
线索 43
结构调整 43
结算 43
统计数字 43
绳@@ 43
美丽 43
职人员 43
脱钩 43
臭@@ 43
良 43
节制 43
草根 43
葬@@ 43
衍生 43
角落 43
诉@@ 43
诱人 43
诸 43
贩毒 43
贵族 43
越大 43
踪@@ 43
近邻 43
还给 43
适 43
选手 43
酒精 43
里程碑 43
错误@@ 43
顾及 43
高潮 43
高端 43
麻省理@@ 43
52 42
Financial 42
Kh@@ 42
OMT 42
aj@@ 42
ations 42
cy 42
est 42
ina 42
ital 42
ner 42
oll@@ 42
yn@@ 42
´ 42
一切@@ 42
一百年 42
不同@@ 42
专制@@ 42
世界市场 42
东欧国家 42
予 42
争相 42
人则 42
仁@@ 42
介 42
令人吃惊 42
令其 42
仿效 42
传说 42
似 42
位列 42
住房价格 42
借用 42
先生 42
公民自由 42
再次发生 42
冗@@ 42
军备竞赛 42
分权 42
分水岭 42
分量 42
创出 42
功 42
加盟 42
协同 42
卡尔德隆 42
反感 42
另有 42
名人 42
商业模式 42
嘉@@ 42
回落 42
基因工程 42
夏 42
外部性 42
大学@@ 42
夺回 42
婴 42
孕育 42
宰@@ 42
差额 42
布尔 42
广播 42
应急 42
废 42
弗 42
强奸 42
当权者 42
役 42
忧心忡忡 42
怀疑论者 42
思路 42
总值 42
悲剧性 42
战时 42
战火 42
抗争 42
拟 42
挽回 42
提取 42
携@@ 42
收买 42
收拾 42
斯坦福 42
斯蒂格 42
族群 42
无济于事 42
既定 42
旱灾 42
旷日持久 42
昭@@ 42
曲线 42
更难 42
期货@@ 42
杀人@@ 42
栖@@ 42
格尔 42
桑托斯 42
植 42
武 42
母国 42
泰勒 42
演员 42
演进 42
潜能 42
潮@@ 42
激进主义 42
炮制 42
特里 42
狐@@ 42
病学 42
看不见 42
石油市场 42
碑 42
碰撞 42
窘@@ 42
端倪 42
笃@@ 42
答 42
算是 42
粉 42
纯 42
纳米技术 42
纵容 42
缪@@ 42
罢了 42
翻一番 42
肆@@ 42
肉类 42
肺@@ 42
胆 42
背上 42
腐蚀 42
自然而然 42
致富 42
莎 42
虎@@ 42
蚊@@ 42
论据 42
诱 42
贫民@@ 42
辖区 42
辩解 42
这家 42
远超 42
连通性 42
逐 42
遣@@ 42
遵从 42
邪@@ 42
部长@@ 42
重任 42
针锋相对 42
铺平 42
长大 42
阿布 42
限定 42
非暴力 42
韧性 42
顺从 42
骇人听闻 42
齿 42
2500 41
89 41
Char@@ 41
EA 41
IA 41
Jac@@ 41
Nor@@ 41
Pi@@ 41
SA@@ 41
Sus@@ 41
Wol@@ 41
ank 41
ant 41
ert 41
eter 41
ion 41
ov 41
oy@@ 41
res 41
uk@@ 41
一层 41
一带 41
一本 41
一步@@ 41
三角洲 41
不如说 41
不算 41
不胜@@ 41
不起@@ 41
中旬 41
主角 41
乐观主义 41
书记 41
五月 41
亨@@ 41
亮@@ 41
优 41
低位 41
保守@@ 41
借款@@ 41
僵尸 41
克里斯 41
公共开支 41
公立学校 41
六月 41
内涵 41
出口导向型 41
创性 41
创设 41
加勒比@@ 41
十国集团 41
卜@@ 41
受访者 41
古兰经 41
台湾@@ 41
吞噬 41
哈耶克 41
嘲笑 41
国防@@ 41
国际制裁 41
基什 41
墙@@ 41
墨@@ 41
大声 41
大错特错 41
套利 41
奥斯本 41
好战 41
如其@@ 41
妥 41
孱弱 41
安装 41
宏伟 41
室内 41
宪@@ 41
对外@@ 41
寿@@ 41
就职@@ 41
局长 41
带头 41
幸存者 41
府 41
廷 41
弊@@ 41
引力 41
恋@@ 41
情报机构 41
愤 41
扎伊 41
打印 41
执行@@ 41
扩张@@ 41
拘留 41
拙 41
拨 41
捕获 41
措 41
改变@@ 41
敬 41
数次 41
斯州 41
旗 41
旗帜 41
时间@@ 41
智能手机 41
暗中 41
暴力事件 41
替罪羊 41
有何 41
有所改善 41
有罪 41
杆@@ 41
果真 41
柔性 41
查尔斯 41
正当@@ 41
死于 41
毋庸置疑 41
水面 41
洲@@ 41
流氓 41
灌输 41
牧@@ 41
特质 41
独立党 41
率先 41
生产成本 41
眼睛 41
社会保险 41
社会化 41
祈@@ 41
私人企业 41
秘密@@ 41
窗口 41
立陶宛 41
符合@@ 41
米洛舍维奇 41
粮食安全 41
精明 41
经济效益 41
缘@@ 41
罪魁 41
胜者 41
腾 41
自利 41
自大 41
自由党 41
苏维埃 41
著称 41
葬 41
蒙特@@ 41
表现@@ 41
要是 41
话语权 41
诺贝尔和平奖 41
谜 41
资金来源 41
蹈@@ 41
躲避 41
较少 41
邦@@ 41
铸@@ 41
问及 41
陈光诚 41
雷斯 41
须知 41
预警 41
领先@@ 41
首个 41
黎巴嫩@@ 41
140 40
1931 40
1949 40
76 40
8000 40
88 40
Fund 40
Michael 40
NGO 40
Or@@ 40
Summers 40
agh@@ 40
ange 40
ant@@ 40
ass@@ 40
omm@@ 40
一幅 40
丁@@ 40
不明智 40
不稳定性 40
不远 40
世俗主义 40
严重后果 40
个性化 40
中世纪 40
中美@@ 40
为数@@ 40
之旅 40
事务@@ 40
事宜 40
井@@ 40
交战 40
亲信 40
人才@@ 40
亿美金 40
仍会 40
代谢 40
估 40
伸出 40
俄罗斯@@ 40
俘@@ 40
保护措施 40
保持沉默 40
倡导者 40
假说 40
偏远 40
做过 40
全方位 40
公平竞争 40
关键点 40
兴奋剂 40
养活 40
内心 40
农地 40
几百万 40
删@@ 40
前后 40
前首相 40
加之 40
反响 40
吉拉@@ 40
周刊 40
哈塔米 40
售@@ 40
困局 40
圣经 40
域 40
多项 40
大头 40
大手笔 40
大通 40
失利 40
好好 40
安定 40
定罪 40
家中 40
家里 40
对照 40
小农 40
尤科斯 40
屋 40
广袤 40
建设@@ 40
开销 40
恶意 40
悲哀 40
惩罚性 40
截然 40
所在地 40
担当 40
挖掘 40
挥之不去 40
捐助国 40
掘 40
握 40
撑@@ 40
整 40
整顿 40
断言 40
无一例外 40
无几 40
是非 40
晚些时候 40
更为严重 40
末期 40
本书 40
权力@@ 40
杜 40
束手无策 40
枯@@ 40
格莱@@ 40
档 40
概括 40
模 40
欧安组织 40
武器@@ 40
段@@ 40
民主党人 40
民营企业 40
江 40
汤@@ 40
沉 40
没收 40
泛美 40
流动资金 40
浓度 40
海水 40
温床 40
漏 40
牢固 40
狂 40
生殖 40
着陆 40
离婚 40
科学界 40
税负 40
稻@@ 40
累累 40
统一@@ 40
羊 40
美德 40
而上 40
耗 40
耶夫 40
肆意 40
腰@@ 40
自主权 40
自私 40
艺术品 40
艾伦 40
荡@@ 40
萌@@ 40
行不通 40
规划@@ 40
警钟 40
训练@@ 40
诊@@ 40
诗人 40
财政收入 40
购买@@ 40
资源配置 40
赋 40
趣 40
较弱 40
迅猛 40
这能 40
逍遥法外 40
逝@@ 40
逼近 40
部件 40
采取任何 40
钟@@ 40
锁@@ 40
长期性 40
长远@@ 40
露出 40
预知 40
饭@@ 40
首任 40
驻@@ 40
魔鬼 40
默多克 40
4000 39
98 39
BA 39
Fried@@ 39
Gro@@ 39
Martin 39
New 39
Sal@@ 39
Y 39
You@@ 39
ampnbsp 39
ase 39
eth 39
overn@@ 39
vestment 39
za 39
 39
ï 39
一致同意 39
一门 39
万亿@@ 39
三月 39
不同寻常 39
与此相反 39
专长 39
世纪@@ 39
中全会 39
中来 39
为时过早 39
之大 39
之情 39
乌兹别@@ 39
乡@@ 39
亚历山@@ 39
交易员 39
人来 39
仇外 39
从未有过 39
令人满意 39
伊斯兰@@ 39
低价 39
何况 39
佳@@ 39
先驱 39
入学率 39
全国@@ 39
全都 39
公平@@ 39
六十年代 39
关塔那摩 39
冰盖 39
冲绳 39
出租车 39
列出 39
初选 39
化肥 39
卡尔德 39
印巴 39
双重@@ 39
发病率 39
发言 39
同比 39
喝@@ 39
喻 39
国民党 39
图书馆 39
基督@@ 39
堕@@ 39
墨西哥@@ 39
多家 39
大增 39
奉 39
奢侈 39
如下 39
如出一辙 39
如若 39
妻 39
孙@@ 39
孩 39
安全部门 39
密切相关 39
尼古拉斯 39
岛国 39
崇高 39
左倾 39
巴西@@ 39
常识 39
建制 39
引渡 39
弱化 39
强制@@ 39
归属 39
归还 39
心脏 39
必定 39
急剧下降 39
抽象 39
拉姆 39
掉@@ 39
推断 39
推荐 39
推销 39
改革@@ 39
政治势力 39
斩@@ 39
新来者 39
无穷@@ 39
最低水平 39
最长 39
有鉴于此 39
未可知 39
标准@@ 39
栋 39
栏 39
格里 39
模糊@@ 39
正确方向 39
正统@@ 39
步履@@ 39
武装部队 39
每人 39
比作 39
民营 39
汉密尔顿 39
沙皇 39
波斯 39
洛杉矶 39
浩@@ 39
涉 39
湿@@ 39
漂亮 39
瑟 39
瓶颈 39
生机勃勃 39
畏 39
略高于 39
登记 39
监管@@ 39
相互依赖 39
破产法 39
科夫 39
空缺 39
章程 39
符号 39
第一批 39
第二天 39
第四个 39
筹码 39
管治 39
约合 39
绩@@ 39
维亚 39
维度 39
维斯 39
美元汇率 39
联储 39
聚会 39
胜过 39
自我实现 39
自杀式 39
舌 39
航空公司 39
若非 39
英法 39
莫桑比克 39
葛 39
葡萄@@ 39
虑@@ 39
蛋@@ 39
西奈半岛 39
见解 39
规格 39
讨好 39
译 39
调动 39
豪 39
贫困率 39
贫富@@ 39
贬低 39
贸易逆差 39
贺 39
跌幅 39
跳 39
迁往 39
选择性 39
道义 39
都市 39
野生动物 39
金融家 39
金融风险 39
铁幕 39
银行业务 39
销毁 39
闲 39
阳光 39
陌生人 39
雅克 39
青年人 39
革@@ 39
频 39
风潮 39
高价 39
鲜明对比 39
麦加 39
鼠 39
1974 38
1984 38
3D 38
6000 38
74 38
Center 38
HP@@ 38
Health 38
IF@@ 38
ND@@ 38
SD@@ 38
ade 38
ex 38
iti@@ 38
ld 38
« 38
一分@@ 38
一向 38
一席之地 38
一月 38
一臂之力 38
一辆 38
三名 38
上个世纪 38
不堪重负 38
业已 38
两点 38
举债 38
之苦 38
五国 38
产值 38
产油国 38
亲自 38
人力资源 38
人大 38
他国 38
代际 38
价值链 38
体内 38
依赖@@ 38
侵略性 38
保有 38
信托 38
兄@@ 38
光是在 38
免疫@@ 38
党人 38
全人类 38
共同@@ 38
分成 38
制品 38
加税 38
助于 38
勾结 38
化身 38
北美自由贸易协定 38
卓@@ 38
南极 38
占多数 38
厅 38
参谋@@ 38
发表@@ 38
古代 38
可卡因 38
合情合理 38
向往 38
味@@ 38
喜马拉@@ 38
嘴@@ 38
嚣@@ 38
囚禁 38
固 38
国际象棋 38
地域 38
坚定@@ 38
外衣 38
大到 38
大大降低 38
契@@ 38
契合 38
学历 38
安娜 38
定性 38
室@@ 38
密特朗 38
寻@@ 38
小得多 38
尼日尔 38
工学院 38
工程@@ 38
巴基@@ 38
师@@ 38
带入 38
平等@@ 38
幸福@@ 38
庆 38
庭@@ 38
廊 38
引爆 38
很强 38
徒劳 38
得势 38
心理学家 38
态@@ 38
怒火 38
恐@@ 38
惜 38
意志@@ 38
慈善机构 38
慌@@ 38
所用 38
手册 38
执政@@ 38
扯 38
承担@@ 38
技术上 38
抓住机会 38
投给 38
抗衡 38
操作@@ 38
收费 38
救命 38
数万亿美元 38
文化大革命 38
斡旋 38
斯顿 38
旗号 38
无权 38
旧有 38
时会 38
昂 38
更换 38
最穷 38
机会@@ 38
权宜之计 38
束@@ 38
来得 38
根本原因 38
检查@@ 38
概@@ 38
此项 38
比亚 38
氏@@ 38
民主改革 38
民间团体 38
水电 38
求助 38
汗 38
沉重@@ 38
泄 38
泡@@ 38
泻 38
消化 38
液压 38
滚@@ 38
漠不关心 38
炎 38
烦@@ 38
牛肉 38
环节 38
现阶段 38
珊@@ 38
瑟@@ 38
生动 38
由来已久 38
百分比 38
相形@@ 38
相连 38
真诚 38
瞩目 38
瞬@@ 38
短时间 38
碗 38
示威@@ 38
票数 38
科夫斯基 38
符 38
第一轮 38
经济秩序 38
绕 38
美国市场 38
肥料 38
自由民主党 38
莱因哈特 38
裨益 38
让位 38
诉诸 38
财务@@ 38
财政危机 38
费舍尔 38
赔偿 38
越来越@@ 38
过量 38
追逐 38
退休者 38
适应@@ 38
遗传学 38
酋@@ 38
错失 38
长足 38
青睐 38
非金融 38
颜@@ 38
餐@@ 38
餐馆 38
饭店 38
驯@@ 38
魔 38
默认 38
1500 37
170 37
1900 37
78 37
AAA 37
Ben 37
Cap@@ 37
Go@@ 37
NAFTA 37
Per@@ 37
ald 37
als 37
ian 37
ited 37
ly 37
ment@@ 37
tor 37
und@@ 37
¤ 37
¨ 37
一切都是 37
一间 37
不可及 37
不言@@ 37
不遗余力 37
不难@@ 37
严酷 37
严重破坏 37
之比 37
从此 37
从那以后 37
仓@@ 37
以求 37
僵@@ 37
兀鹫 37
充 37
充裕 37
入主 37
关键时刻 37
内陆 37
决非 37
减支 37
到位 37
刺杀 37
加勒@@ 37
匆忙 37
印刷 37
卷@@ 37
反对@@ 37
受害 37
可控 37
各个@@ 37
名誉 37
和平共处 37
嘴 37
因果关系 37
国际法庭 37
基辅 37
塌 37
墨尔本 37
墨西哥湾 37
外币 37
多边贸易 37
大于@@ 37
大都 37
夺 37
好莱坞 37
妓@@ 37
姬 37
季莫申科 37
安理@@ 37
尾声 37
岁月 37
巨 37
开设 37
德国联邦 37
忌 37
忠于 37
急迫 37
急速 37
惊 37
惟@@ 37
惧 37
想一想 37
感到@@ 37
慨 37
成功@@ 37
战略目标 37
扰乱 37
拉克 37
拉夫@@ 37
拉姆斯菲尔德 37
拥护 37
拼命 37
指导@@ 37
捷 37
接壤 37
提供商 37
撼@@ 37
收成 37
效忠 37
数亿 37
斯特恩 37
既然如此 37
旦@@ 37
暴力行为 37
有赖于 37
本该 37
术@@ 37
权力斗争 37
某一 37
柔@@ 37
格格不入 37
欧地区 37
毛里@@ 37
永恒 37
池 37
沙拉 37
没人会 37
油价格 37
活着 37
派出 37
流域 37
涂@@ 37
润@@ 37
涨幅 37
深思熟虑 37
渡 37
热点 37
热量 37
热门 37
物资 37
牵涉 37
特纳 37
特网 37
狭窄 37
王室 37
环保主义者 37
甜@@ 37
用尽 37
电子邮件 37
相悖 37
真实世界 37
睡@@ 37
破碎 37
碳税 37
神奇 37
私募 37
种群 37
称作 37
突破性 37
窄 37
窥 37
笼罩 37
算计 37
管理人员 37
米尔顿 37
糊 37
系@@ 37
练@@ 37
继任 37
置疑 37
美国联邦 37
考试 37
肆无忌惮 37
背负着 37
胜利者 37
脱节 37
良性 37
落到 37
薄@@ 37
袭@@ 37
裁员 37
西斯 37
解放出来 37
詹 37
订立 37
诡@@ 37
诱使 37
谈判者 37
象棋 37
蹒跚 37
辜@@ 37
辨@@ 37
边境@@ 37
这样的话 37
远大于 37
邻邦 37
镇 37
阿亚图 37
阿姆斯特@@ 37
雄厚 37
集合 37
霍尔@@ 37
非传统 37
面值 37
面包 37
颜色 37
食用 37
首要@@ 37
鹅 37
05 36
1944 36
2018 36
73 36
Am@@ 36
American 36
CC@@ 36
Em@@ 36
FD@@ 36
GB@@ 36
Gen@@ 36
ID 36
Isl@@ 36
Jean 36
Ma@@ 36
Mil@@ 36
Pe@@ 36
Stability 36
Tre@@ 36
ace 36
ez 36
ney 36
ocr@@ 36
ol 36
tive 36
tri@@ 36
ƒ 36
一书中 36
一根 36
不合@@ 36
与会 36
丢失 36
严苛 36
丧@@ 36
乙醇 36
了不起 36
亚洲@@ 36
亚洲各国 36
任意 36
低得 36
保证@@ 36
停火@@ 36
儿童@@ 36
全面@@ 36
公开市场 36
公式 36
六十年 36
六方会谈 36
共同化 36
关系密切 36
兴盛 36
决赛 36
几内亚 36
几百@@ 36
分散@@ 36
刚果 36
制订 36
前线 36
前面 36
加斯 36
动者 36
努力@@ 36
化成 36
十字路口 36
即可 36
县 36
友谊 36
反叛 36
发布@@ 36
发电量 36
古怪 36
呼吸 36
唤 36
圣保罗 36
在实践中 36
场景 36
塔纳 36
增加值 36
声望 36
夏季 36
多数派 36
多米尼@@ 36
天空 36
头寸 36
奢侈品 36
宫颈癌 36
将令 36
少之又少 36
尼古拉 36
届时 36
币@@ 36
希尔 36
年轻一代 36
并存 36
幼稚 36
床@@ 36
异议 36
强加@@ 36
归结为 36
心血@@ 36
心里 36
忧心 36
总体经济 36
惨遭 36
意欲 36
慈善@@ 36
执掌 36
扩 36
抓 36
投入@@ 36
投资率 36
护照 36
抬高 36
拉大 36
拉里 36
挑战性 36
接受@@ 36
接替 36
推波助澜 36
推论 36
撞@@ 36
撤回 36
支援 36
整体@@ 36
新闻自由 36
方方面面 36
旬 36
明晰 36
暴君 36
曼谷 36
最先 36
有损于 36
朗@@ 36
木材 36
权威@@ 36
构造 36
梵蒂冈 36
橄@@ 36
正确性 36
正逢 36
毁坏 36
沃尔福 36
浮动汇率 36
深深地 36
炫@@ 36
父辈 36
狭@@ 36
狼藉 36
猩猩 36
献者 36
瓜@@ 36
用词 36
电台 36
疲劳 36
痕@@ 36
皆知 36
直观 36
相容 36
研制 36
研究院 36
礼物 36
祝@@ 36
种姓 36
租 36
积极性 36
移植 36
税务 36
税收@@ 36
空洞 36
竞相 36
第三世界 36
第三条 36
简单化 36
算法 36
紧急状态 36
累进 36
纳粹德国 36
纵观 36
经济损失 36
维基 36
缔造者 36
缺位 36
罚@@ 36
罢@@ 36
置身@@ 36
耀@@ 36
老年 36
肚@@ 36
肥@@ 36
自拔 36
舒适 36
舰@@ 36
苛刻 36
若干@@ 36
莱特 36
表象 36
解决@@ 36
警报 36
认 36
讽 36
诞 36
贝尔@@ 36
贝尔斯 36
负责人 36
财产@@ 36
赋权 36
赞誉 36
赦 36
赫鲁晓夫 36
趋 36
跟上 36
跟随 36
辅助 36
远见卓识 36
通知 36
逸 36
避风港 36
酸@@ 36
铲@@ 36
银行存款 36
阔@@ 36
防御@@ 36
阶@@ 36
雀@@ 36
集中营 36
霍梅尼 36
露无遗 36
青少年 36
面纱 36
项@@ 36
顺序 36
饿@@ 36
首当其@@ 36
马克思主义 36
马哈茂德 36
骑@@ 36
高加索 36
高回报 36
高效率 36
鬼@@ 36
鸟 36
2100 35
97 35
Ah@@ 35
Dem@@ 35
FARC 35
Kenn@@ 35
Medic@@ 35
Security 35
ans 35
arry 35
dis@@ 35
ism 35
itiative 35
olu@@ 35
ound@@ 35
uel 35
ut 35
¢ 35
一口气 35
一季度 35
一年@@ 35
一无所知 35
七个 35
三者 35
上市公司 35
上要 35
不可否认 35
不容忽视 35
不结盟运动 35
世界舞台 35
个月 35
中是 35
为所@@ 35
之类 35
了当 35
事例 35
二是 35
五岁 35
交出 35
人民银行 35
亿万富翁 35
伊拉克政府 35
伐@@ 35
伦斯 35
位数 35
作风 35
促@@ 35
俗@@ 35
俘 35
修正主义 35
候选 35
借入 35
假以时日 35
偏爱 35
先知 35
公斤 35
军国主义 35
军费 35
冰 35
冻 35
减产 35
出版@@ 35
刊登 35
创下 35
利制度 35
利率政策 35
利益@@ 35
别无@@ 35
到访 35
割裂 35
劝说 35
加权 35
十字@@ 35
单枪匹马 35
单靠 35
厌倦 35
双管齐下 35
另一边 35
司法部 35
同情心 35
听证会 35
啡 35
器@@ 35
国家队 35
坏账 35
增加收入 35
增多 35
壑 35
多数@@ 35
大幅度@@ 35
大惊@@ 35
天皇 35
夭折 35
失败者 35
奴役 35
姐@@ 35
嫌疑@@ 35
孚 35
孤独 35
密切合作 35
寻租 35
小心翼翼 35
尽头 35
屈辱 35
州政府 35
年龄段 35
广告@@ 35
应得 35
废物 35
座@@ 35
廉@@ 35
延 35
当地人 35
彻底改变 35
彼得堡 35
循@@ 35
忽略不计 35
怀旧 35
怨恨 35
患病 35
惨败 35
意料之外 35
感染@@ 35
懂@@ 35
戒 35
所作 35
所受 35
手握 35
手脚 35
扎尔 35
投降 35
拉美地区 35
拥抱 35
损伤 35
捷克@@ 35
推崇 35
摧残 35
撒谎 35
敌对@@ 35
救世主 35
斯洛@@ 35
新闻报道 35
无休止 35
早先 35
暗 35
最差 35
杯@@ 35
构筑 35
核威胁 35
橙@@ 35
欣 35
歉 35
民主运动 35
民意测验 35
泄露 35
法兰@@ 35
洁 35
流血@@ 35
浮出 35
海牙 35
淡化 35
深入@@ 35
溪 35
炭 35
热带@@ 35
燃 35
爱国@@ 35
爱沙尼亚 35
狱@@ 35
班加西 35
理学 35
番@@ 35
疫 35
相匹配 35
着重于 35
瞻 35
福克斯 35
私下 35
秉@@ 35
秋 35
称得上 35
筑 35
类比 35
糕 35
繁荣期 35
纠结 35
纽约市 35
缅@@ 35
缠 35
置之不理 35
美中 35
美国参议院 35
老师 35
聆@@ 35
背负 35
胚@@ 35
至此 35
茨基 35
菲特 35
蒙受损失 35
虚拟 35
表述 35
观者 35
诅咒 35
详 35
诺基亚 35
赵@@ 35
超低 35
身体@@ 35
辖@@ 35
达州 35
达赖喇嘛 35
这要 35
述@@ 35
迷惑 35
逊尼 35
钉 35
钻井 35
防治 35
阿齐兹 35
随心所欲 35
难以想象 35
集体@@ 35
雕@@ 35
霍乱 35
饱@@ 35
马克里 35
骚扰 35
鼓 35
 34
¥ 34
› 34
亨 34
付钱 34
仙@@ 34
仲@@ 34
仲裁 34
伟 34
俄罗斯政府 34
保护区 34
借债 34
先科 34
全面禁止 34
公告 34
兰政府 34
共同之处 34
其为 34
具@@ 34
冲击@@ 34
决意 34
切实@@ 34
剧增 34
力气 34
劝@@ 34
北极@@ 34
医药@@ 34
十一月 34
即时 34
发行@@ 34
受控 34
合作社 34
名称 34
吸取@@ 34
哈特 34
唱 34
商业活动 34
嗤之以鼻 34
回复 34
固定资产 34
国与国 34
圈子 34
土著 34
坐等 34
堡垒 34
塞尔 34
处方 34
多尔 34
多极世界 34
大厦 34
大有裨益 34
太平洋@@ 34
好奇心 34
妥@@ 34
姆斯 34
威廉 34
子公司 34
安保 34
安哥拉 34
实物 34
导演 34
小镇 34
少数几个 34
尖阁 34
尚早 34
尼察 34
屋主 34
布斯 34
强人 34
强烈@@ 34
形态 34
影像 34
很难说 34
性别@@ 34
恐惧@@ 34
想方设法 34
慢@@ 34
懈@@ 34
战前 34
战败 34
房贷 34
所料 34
才华 34
扫 34
批判@@ 34
承包@@ 34
拉动型 34
拍卖 34
拜登 34
拾 34
持久@@ 34
指明 34
捆@@ 34
探 34
掩@@ 34
措辞 34
收场 34
改善@@ 34
政治犯 34
教导 34
文字 34
斯库 34
斯蒂格利茨 34
新奥尔良 34
无可避免 34
无家可@@ 34
无用 34
无能@@ 34
明确指出 34
显露 34
月度 34
期刊 34
机械@@ 34
村民 34
极力 34
柏@@ 34
柴@@ 34
档案 34
款@@ 34
正像 34
每位 34
水果 34
汇集 34
沃尔克 34
流量 34
济@@ 34
淋@@ 34
深刻@@ 34
添 34
滑 34
满意@@ 34
火上浇油 34
火箭弹 34
炎@@ 34
牧民 34
特别@@ 34
犯罪行为 34
犹豫不决 34
电池 34
症@@ 34
症候 34
百分之@@ 34
的斯亚贝巴 34
直接参与 34
相处 34
看清 34
看重 34
碰到 34
磷@@ 34
科学技术 34
税法 34
窒@@ 34
窟 34
粗暴 34
精心@@ 34
系数 34
紧急情况 34
纳德 34
组织@@ 34
细致 34
绌 34
维利 34
绵@@ 34
羞 34
肥沃 34
肿 34
胃口 34
能比 34
自负 34
萨尔瓦多 34
蒙受 34
蔬@@ 34
血统 34
行之@@ 34
被占领土 34
西尔 34
警觉 34
设计师 34
该项 34
诱惑力 34
调解 34
谅解 34
贩 34
赛尔 34
赤贫 34
走进 34
赶下台 34
越南@@ 34
输掉 34
迁@@ 34
迅@@ 34
运河 34
还债 34
还款 34
这块 34
违法 34
选定 34
逾越 34
采取@@ 34
金融交易 34
锻@@ 34
闹 34
阿尔 34
陆军 34
非但 34
非营利 34
面对@@ 34
颁发 34
颂 34
预防@@ 34
颓势 34
风险@@ 34
餐厅 34
骨 34
高压 34
鼎 34
鼓舞人心 34
CE@@ 33
 33
Ÿ 33
丛@@ 33
之不@@ 33
之以 33
享@@ 33
仰 33
仿@@ 33
侣 33
健@@ 33
傲@@ 33
兆@@ 33
公决 33
刑事@@ 33
半年 33
压倒@@ 33
发电@@ 33
吃惊 33
各样 33
地区@@ 33
埋 33
夫斯基 33
威尔@@ 33
彦 33
所在@@ 33
挪@@ 33
掷 33
斐@@ 33
斥@@ 33
桑 33
桩 33
棱@@ 33
榄@@ 33
歪@@ 33
殖 33
池@@ 33
洞 33
潭 33
疹 33
百万@@ 33
确定性 33
私 33
肃@@ 33
胎@@ 33
获得@@ 33
衰 33
计算@@ 33
诀 33
证券@@ 33
诗@@ 33
询 33
辍@@ 33
迥@@ 33
邮件 33
醉 33
镇@@ 33
阀 33
阳 33
陋 33
陪@@ 33
雇 33
ility 32
oci@@ 32
 32
不多 32
不太@@ 32
且@@ 32
仓 32
佬 32
侦@@ 32
刃@@ 32
刷@@ 32
句@@ 32
吵 32
喘@@ 32
嘘 32
大有@@ 32
失业@@ 32
妙@@ 32
宴 32
少数@@ 32
巴尔@@ 32
得多 32
忙@@ 32
惩@@ 32
挣@@ 32
摄 32
攸@@ 32
敛 32
昧 32
是说 32
暇 32
暴 32
染 32
根本@@ 32
桥@@ 32
欢 32
欧国家 32
汹@@ 32
涩 32
犹 32
益@@ 32
睁@@ 32
砸 32
究@@ 32
紫@@ 32
纸 32
统治@@ 32
翼 32
肇@@ 32
脆 32
艇 32
芒 32
芯@@ 32
菅@@ 32
虫@@ 32
虾 32
蛊@@ 32
誓 32
警 32
训@@ 32
讳 32
诠@@ 32
谣@@ 32
赦@@ 32
鄙@@ 32
铜 32
马来@@ 32
鸟@@ 32
ative 31
一无@@ 31
丑 31
偶@@ 31
刊@@ 31
剥@@ 31
匪@@ 31
午 31
咨@@ 31
固定@@ 31
外汇@@ 31
嫁@@ 31
峰@@ 31
总体@@ 31
恼@@ 31
惯 31
戛@@ 31
押@@ 31
拢 31
拱@@ 31
支持@@ 31
昨@@ 31
格兰@@ 31
氮 31
烦 31
爆 31
牲@@ 31
狗@@ 31
狡@@ 31
猫 31
玻@@ 31
皆 31
相关@@ 31
知识@@ 31
砍@@ 31
私人@@ 31
绩 31
罔@@ 31
荷 31
菜@@ 31
蜂@@ 31
蠢@@ 31
袒 31
迄@@ 31
采 31
针@@ 31
钻@@ 31
阁 31
阿富@@ 31
陆 31
陈 31
隶 31
霸@@ 31
骄@@ 31
CD@@ 30
j 30
® 30
一致@@ 30
乍 30
乙@@ 30
仇 30
你@@ 30
兽 30
切尔 30
午@@ 30
厢@@ 30
君@@ 30
周边@@ 30
唐 30
囊 30
妇@@ 30
娩 30
定居@@ 30
布莱@@ 30
帐 30
庭 30
忆@@ 30
恕 30
扁 30
扰 30
挂 30
措@@ 30
旺 30
有者 30
朽 30
横 30
添@@ 30
滤 30
潘 30
焚@@ 30
疆@@ 30
磨@@ 30
祸@@ 30
空气@@ 30
竿@@ 30
系列 30
绥@@ 30
续下去 30
羁@@ 30
羊@@ 30
聊@@ 30
肌@@ 30
胁@@ 30
臃@@ 30
著@@ 30
董@@ 30
谅 30
踌@@ 30
躲@@ 30
辉 30
违 30
透 30
遍 30
郊@@ 30
铜@@ 30
银 30
Ge@@ 29
OM@@ 29
¶ 29
亚太@@ 29
以色列@@ 29
侪 29
候选@@ 29
克林@@ 29
冠 29
分析@@ 29
利亚人 29
割@@ 29
勿@@ 29
卵@@ 29
卷 29
厌@@ 29
哈里@@ 29
哺@@ 29
唾@@ 29
喂@@ 29
壁 29
夕@@ 29
多米@@ 29
夹@@ 29
奶 29
妖@@ 29
孙 29
实践@@ 29
宠@@ 29
屠@@ 29
嵌@@ 29
巴斯 29
床 29
庞@@ 29
强硬@@ 29
忏@@ 29
恒@@ 29
悔@@ 29
拷@@ 29
持续@@ 29
挖@@ 29
挫 29
摊 29
敦@@ 29
楚 29
款人 29
氢 29
汀 29
湖@@ 29
溯 29
畸@@ 29
稽@@ 29
绍 29
肩 29
苹@@ 29
茶 29
认真@@ 29
诗 29
鉴@@ 29
锡 29
霸 29
颖@@ 29
饥@@ 29
饼 29
驭 29
骂 29
Cent@@ 28
PP 28
oh@@ 28
ss@@ 28
³ 28
à 28
不见 28
么样 28
乏 28
亏@@ 28
产阶级 28
京@@ 28
伙@@ 28
信用@@ 28
倾 28
克鲁@@ 28
况 28
印度@@ 28
合法@@ 28
啊 28
塑@@ 28
外部@@ 28
孔 28
它@@ 28
实验@@ 28
寿 28
尼古@@ 28
屑@@ 28
意大利@@ 28
慑@@ 28
慕 28
懒@@ 28
披@@ 28
拒 28
挺 28
换句@@ 28
旅 28
晋@@ 28
朴@@ 28
棉 28
毕@@ 28
泄@@ 28
牧 28
珠 28
琐 28
畜@@ 28
盒 28
盼 28
睡 28
督 28
短期@@ 28
秘 28
约旦@@ 28
结构@@ 28
络 28
聊 28
胸@@ 28
虏 28
贿 28
释@@ 28
金本@@ 28
锦@@ 28
雇@@ 28
驳 28
高加@@ 28
高等@@ 28
_ 27
§ 27
± 27
一来 27
不前 27
中间@@ 27
乞@@ 27
亩 27
佣@@ 27
俭 27
劾 27
勃勃 27
募@@ 27
原子@@ 27
又@@ 27
吴@@ 27
呆@@ 27
喋@@ 27
喘 27
土耳其@@ 27
地人 27
堂@@ 27
够@@ 27
奸 27
妮@@ 27
尘 27
就业@@ 27
帐@@ 27
引 27
忽@@ 27
思想@@ 27
悉@@ 27
惧@@ 27
慑 27
拓@@ 27
挨@@ 27
掠@@ 27
撼 27
斑 27
旺@@ 27
普林斯@@ 27
枝 27
泡 27
消 27
涵@@ 27
淫 27
漂@@ 27
激进@@ 27
熔@@ 27
特尔 27
玷@@ 27
瑞 27
生素 27
畅 27
痒 27
痢@@ 27
盆@@ 27
盐 27
真实@@ 27
禀@@ 27
筛@@ 27
粒 27
肝 27
腐 27
舞@@ 27
蓄 27
袖@@ 27
覆 27
评 27
诚 27
谕 27
贱@@ 27
贸@@ 27
鉴 27
锋 27
锚 27
阅 27
际@@ 27
陷@@ 27
鲸@@ 27
龄@@ 27
BR@@ 26
Fin@@ 26
He@@ 26
MD@@ 26
X 26
不论@@ 26
为人@@ 26
休 26
准备@@ 26
凝@@ 26
刹@@ 26
哲@@ 26
唐@@ 26
垫@@ 26
墓 26
壳 26
奢@@ 26
姐 26
寓 26
幽@@ 26
庸 26
情报@@ 26
愈 26
扯@@ 26
抢 26
担 26
挡 26
捧 26
攻 26
是如此 26
棉@@ 26
湖 26
炉 26
熟 26
爵 26
瘤 26
皇 26
祷 26
窗 26
约束@@ 26
肘 26
菲尔德 26
蓬@@ 26
蔑 26
觅 26
设计@@ 26
谜@@ 26
谢 26
豁@@ 26
赁 26
赤@@ 26
辱@@ 26
逼 26
遥 26
锐 26
阿尔巴@@ 26
隐 26
鞭@@ 26
驶@@ 26
验 26
验@@ 26
默德 26
鼻@@ 26
ü 25
† 25
久性 25
予@@ 25
仿 25
伴@@ 25
储蓄@@ 25
克里姆@@ 25
利比@@ 25
卡尔@@ 25
噶@@ 25
圆 25
圾@@ 25
垃@@ 25
壮 25
夷 25
嫌@@ 25
寒 25
寸@@ 25
尖 25
岩@@ 25
帅 25
彭@@ 25
律@@ 25
性化 25
恣@@ 25
恭 25
悄 25
慎 25
憎@@ 25
戚 25
捏@@ 25
擦@@ 25
正确@@ 25
永 25
沁 25
沿 25
洗 25
浑@@ 25
浮 25
渎 25
溃@@ 25
溺@@ 25
滨 25
灌@@ 25
烷 25
爱尔@@ 25
爵@@ 25
瑚@@ 25
瓶@@ 25
甘 25
甩 25
疮@@ 25
瘟@@ 25
直接@@ 25
相当@@ 25
睹 25
睿@@ 25
破坏@@ 25
碑@@ 25
秋@@ 25
科斯 25
穆 25
窝 25
竖@@ 25
竭尽@@ 25
粹主义 25
纲 25
考 25
脏@@ 25
腰 25
臣@@ 25
艺@@ 25
芝加@@ 25
莉 25
虐 25
虽 25
蜜@@ 25
衍 25
谨@@ 25
赎 25
赐 25
跨国@@ 25
踢 25
透明@@ 25
道而@@ 25
醇 25
里斯@@ 25
铺 25
隙 25
雄 25
鞋 25
鬼 25
鸽@@ 25
鼎@@ 25
Americ@@ 24
Wor@@ 24
£ 24
Š 24
‹ 24
™ 24
不下 24
再次@@ 24
冬 24
刊 24
区域@@ 24
匿 24
咒 24
喝 24
嚣 24
奴 24
妨 24
寸 24
尔德 24
庸@@ 24
悖@@ 24
意料@@ 24
拉克@@ 24
拓 24
振 24
搅@@ 24
搬 24
撬@@ 24
新兴@@ 24
旅游@@ 24
无一@@ 24
昆 24
晋 24
枝@@ 24
柄 24
株 24
涡 24
渎@@ 24
溃 24
滴 24
独 24
猎@@ 24
甸@@ 24
疯@@ 24
盯 24
瞄@@ 24
矫@@ 24
码@@ 24
秒 24
章@@ 24
签 24
纤@@ 24
绕@@ 24
维奇 24
编 24
耕 24
能性 24
芝@@ 24
菌@@ 24
虐@@ 24
蛇 24
蜂 24
袱 24
裕@@ 24
观主义 24
觑 24
诈 24
辙 24
辟@@ 24
酵@@ 24
重负 24
钢 24
阿尔及@@ 24
障@@ 24
靖 24
鸠@@ 24
Europ@@ 23
Gl@@ 23
Par@@ 23
bs@@ 23
² 23
µ 23
京 23
伞 23
依存 23
册 23
准入 23
刘@@ 23
剑 23
剩@@ 23
厉 23
叙@@ 23
叠@@ 23
吵@@ 23
呈@@ 23
国集团 23
培 23
塞浦路@@ 23
墨 23
壁@@ 23
夷@@ 23
宿 23
尼日@@ 23
崎 23
常任理@@ 23
并非@@ 23
弟 23
惩 23
惹@@ 23
愧@@ 23
憧@@ 23
憬 23
拉夫 23
括 23
授 23
描 23
李 23
枚@@ 23
枭 23
柯 23
栏@@ 23
检 23
榜@@ 23
殿 23
毙 23
沈@@ 23
津 23
活动@@ 23
浴@@ 23
浸 23
烙@@ 23
焕@@ 23
焰 23
物价@@ 23
猎 23
疚 23
硫 23
磅 23
种族@@ 23
竟 23
筋@@ 23
绪@@ 23
绰@@ 23
罗马@@ 23
聪@@ 23
臂 23
藐@@ 23
衷@@ 23
裤@@ 23
观经济 23
训 23
诈@@ 23
译@@ 23
谨 23
踵@@ 23
蹴@@ 23
邸 23
钓@@ 23
铎 23
镕@@ 23
陌@@ 23
陵@@ 23
饿 23
enn@@ 22
ission 22
q@@ 22
uri@@ 22
uro@@ 22
东道@@ 22
串@@ 22
人工@@ 22
伍 22
俯@@ 22
兴 22
凑 22
勋@@ 22
卵 22
同性@@ 22
哦 22
商品@@ 22
围 22
地中@@ 22
块@@ 22
坡@@ 22
妮 22
姊@@ 22
平等性 22
店@@ 22
庸置疑 22
惑@@ 22
扪@@ 22
抵 22
抹 22
揽 22
斥 22
晨 22
暂@@ 22
朋@@ 22
杆 22
橡@@ 22
比利@@ 22
毗@@ 22
毫@@ 22
氯@@ 22
汇 22
泪@@ 22
泰 22
涂 22
淖 22
渊@@ 22
渴 22
游击@@ 22
澳大@@ 22
煎@@ 22
熬 22
玉@@ 22
瓶 22
生态@@ 22
皂@@ 22
盎@@ 22
稿 22
粹 22
缄@@ 22
背 22
舟 22
菲律@@ 22
虑 22
虽@@ 22
蚕@@ 22
诘@@ 22
距@@ 22
酿@@ 22
里程@@ 22
钞@@ 22
饰@@ 22
鼠@@ 22
-@@ 21
FTA 21
issi@@ 21
tin 21
¦ 21
© 21
丘 21
丢@@ 21
丰 21
之为 21
仔@@ 21
伊朗@@ 21
侵略@@ 21
俾@@ 21
凑@@ 21
刺 21
剃@@ 21
勇 21
华尔@@ 21
华盛@@ 21
可信@@ 21
吻 21
哗@@ 21
啦 21
喊@@ 21
噪@@ 21
妒 21
委内瑞@@ 21
宅@@ 21
宠 21
密切@@ 21
巫@@ 21
布雷@@ 21
彻底@@ 21
战者 21
拐@@ 21
拦@@ 21
搁@@ 21
敏 21
无限@@ 21
昔 21
晴@@ 21
暧@@ 21
柱 21
梁@@ 21
梗 21
榨@@ 21
沥@@ 21
溶@@ 21
烹@@ 21
犀@@ 21
猪@@ 21
珀 21
琐@@ 21
睦@@ 21
碎@@ 21
磨 21
祭@@ 21
禧 21
稻 21
窗@@ 21
窥@@ 21
管齐下 21
累 21
约翰@@ 21
绘 21
缪 21
缴 21
罕@@ 21
羡@@ 21
膜@@ 21
自杀@@ 21
苍@@ 21
茅 21
萨德 21
虚 21
裹 21
选择@@ 21
逞 21
里亚 21
里奥 21
铅 21
陷入@@ 21
饱 21
饶 21
马哈@@ 21
201@@ 20
IM@@ 20
Joh@@ 20
丢 20
书中 20
使馆 20
侯@@ 20
傀@@ 20
全民@@ 20
刃 20
前所未@@ 20
剩 20
受害@@ 20
吝@@ 20
吾@@ 20
国人 20
坛 20
壤 20
奎@@ 20
妈 20
婉 20
孟@@ 20
崩 20
工资@@ 20
帖@@ 20
帷@@ 20
弦@@ 20
必要@@ 20
恪@@ 20
慨@@ 20
所得@@ 20
拳@@ 20
摇 20
摘@@ 20
撇@@ 20
敢@@ 20
敷@@ 20
斯科 20
替@@ 20
朵 20
束 20
柳@@ 20
梳@@ 20
棕@@ 20
榷 20
殖@@ 20
毕 20
汶 20
泳 20
洒 20
液 20
渴@@ 20
漩@@ 20
澜 20
炸 20
然不同 20
熙 20
狸 20
珊 20
电动@@ 20
睁 20
砂 20
碰 20
篡@@ 20
绸@@ 20
聚变 20
腺癌 20
艾哈迈@@ 20
葛@@ 20
蛮@@ 20
螺@@ 20
诟@@ 20
趣@@ 20
踪 20
蹊@@ 20
蹶@@ 20
躇@@ 20
辕@@ 20
辨 20
逮@@ 20
酗@@ 20
重于 20
钚 20
雏@@ 20
颂@@ 20
饪 20
驳@@ 20
魁 20
黯@@ 20
Fac@@ 19
ational 19
¡ 19
上加@@ 19
不入 19
之以@@ 19
乌克@@ 19
事实@@ 19
人听闻 19
企 19
伽@@ 19
冤@@ 19
削@@ 19
剪@@ 19
动型 19
勃@@ 19
卸 19
受益@@ 19
召 19
吕@@ 19
员国 19
咋@@ 19
哭@@ 19
唉 19
嗜@@ 19
复杂@@ 19
夸 19
奠@@ 19
姓@@ 19
娃 19
就是说 19
尺@@ 19
巢@@ 19
帆@@ 19
幌@@ 19
庙 19
弈@@ 19
弗拉@@ 19
弗里@@ 19
弟@@ 19
彼得@@ 19
循 19
恳@@ 19
扔 19
扭@@ 19
扮 19
扰@@ 19
抬@@ 19
挝 19
撰@@ 19
施加@@ 19
旱@@ 19
晰@@ 19
晶@@ 19
朔@@ 19
楷@@ 19
死亡@@ 19
民间@@ 19
氟 19
氧 19
沼@@ 19
浏@@ 19
湄@@ 19
滞 19
滩 19
炒@@ 19
熄@@ 19
爪@@ 19
牺牲@@ 19
猛 19
珀@@ 19
琼@@ 19
瘦@@ 19
矩 19
简 19
精 19
紧张@@ 19
繁荣@@ 19
纹 19
绑@@ 19
罩@@ 19
者@@ 19
耿@@ 19
肢 19
腺 19
般@@ 19
荒 19
诋@@ 19
谍@@ 19
谬@@ 19
躺 19
轩@@ 19
逻@@ 19
遴@@ 19
闹@@ 19
附加@@ 19
陡@@ 19
髦 19
魏@@ 19
ability 18
ean 18
不堪@@ 18
不足@@ 18
从那@@ 18
仑 18
价值@@ 18
傻@@ 18
冈 18
凌@@ 18
剑@@ 18
助国 18
叉 18
吻@@ 18
唯 18
囚@@ 18
在此@@ 18
塌@@ 18
墓@@ 18
契 18
奥巴@@ 18
娘 18
娱@@ 18
宙@@ 18
密集@@ 18
寝 18
寥 18
居高@@ 18
岗 18
帽 18
弗兰@@ 18
弭 18
性循环 18
恭@@ 18
拍 18
指挥@@ 18
挖 18
挟 18
斯拉夫 18
昏@@ 18
查德 18
棍 18
棍@@ 18
浆 18
溢 18
滚 18
滴@@ 18
澜@@ 18
澳@@ 18
爬 18
牟@@ 18
琴 18
甲 18
疟@@ 18
瘾@@ 18
皈@@ 18
相似@@ 18
盼@@ 18
督@@ 18
稠@@ 18
篱 18
粘@@ 18
细 18
绊@@ 18
芝 18
苗@@ 18
莱坞 18
萦@@ 18
蔽@@ 18
薯 18
蛇@@ 18
襟@@ 18
订 18
议会@@ 18
负着 18
趁@@ 18
距 18
蹈 18
轿@@ 18
辈@@ 18
逾 18
避 18
锢 18
闷 18
阶 18
阿卜@@ 18
雄心@@ 18
鞋@@ 18
颖 18
骆@@ 18
200@@ 17
Tw@@ 17
ö 17
不在 17
不复@@ 17
不管@@ 17
丙@@ 17
串 17
乃 17
享 17
佛罗@@ 17
信服 17
俩 17
倚@@ 17
倦 17
儡 17
兑@@ 17
再生@@ 17
凿@@ 17
剖@@ 17
办公@@ 17
勋 17
十年代 17
卑 17
厘 17
厨@@ 17
叹@@ 17
吐@@ 17
喧@@ 17
坟@@ 17
堤@@ 17
墅 17
壤@@ 17
壳@@ 17
天主@@ 17
奔 17
宣 17
富翁 17
寺 17
尼亚州 17
峡@@ 17
巷 17
帖 17
忽 17
总统@@ 17
惫 17
挫@@ 17
捞@@ 17
掺@@ 17
搭 17
敲 17
旁观 17
昌@@ 17
明智@@ 17
杠@@ 17
析 17
汤 17
泊 17
涸 17
灶 17
炉@@ 17
爽 17
狄@@ 17
猾 17
猿 17
理人 17
男 17
盐@@ 17
眉@@ 17
硕@@ 17
确 17
祥 17
秃@@ 17
篷 17
糟@@ 17
紊@@ 17
紧要 17
紧迫@@ 17
绊 17
经济学@@ 17
绳 17
缕 17
耐 17
耻@@ 17
胀 17
胡 17
胺 17
舌@@ 17
莉@@ 17
萝@@ 17
蒋@@ 17
衅@@ 17
裸@@ 17
诛@@ 17
辽@@ 17
迭 17
逻 17
郊 17
酷 17
钵 17
雀 17
髓 17
鸣@@ 17
麻 17
Med@@ 16
q 16
▪ 16
丈 16
世俗@@ 16
乘 16
习惯@@ 16
亵@@ 16
住脚 16
倡@@ 16
健康@@ 16
凄@@ 16
凿 16
则@@ 16
利于 16
刮@@ 16
匙 16
吊@@ 16
咎 16
咬@@ 16
啬 16
嘱 16
噩@@ 16
圳 16
坑 16
多边@@ 16
夥@@ 16
奄@@ 16
奸@@ 16
宋@@ 16
寓@@ 16
小心@@ 16
届@@ 16
峻@@ 16
布什@@ 16
弛 16
愧 16
截 16
所未@@ 16
择@@ 16
拼 16
拾@@ 16
挪 16
捣@@ 16
插 16
撒哈@@ 16
敦 16
晦 16
材@@ 16
来者 16
桎@@ 16
梏 16
检察@@ 16
沙特@@ 16
洪 16
浅@@ 16
测验 16
浸@@ 16
混 16
炭@@ 16
燥 16
玻利@@ 16
璃 16
疵 16
痹 16
碍@@ 16
禽@@ 16
穴@@ 16
筋 16
箭@@ 16
箱@@ 16
绞@@ 16
绿 16
羹 16
肤 16
艳@@ 16
芭@@ 16
苟@@ 16
茁@@ 16
荼 16
莽@@ 16
菊 16
蓝 16
蔡 16
藩@@ 16
衫 16
裹@@ 16
诩 16
谚@@ 16
贫 16
贼 16
郑@@ 16
酬@@ 16
酶 16
醉@@ 16
钥@@ 16
镳 16
闯@@ 16
附 16
雾@@ 16
霾 16
革 16
预算@@ 16
高速@@ 16
魁@@ 16
鸭 16
齿@@ 16
IP 15
Jam@@ 15
und 15
丧 15
亚美@@ 15
伯克@@ 15
僚 15
冈@@ 15
出人@@ 15
刷 15
卢斯科尼 15
卸@@ 15
可知 15
咒@@ 15
咬 15
噪 15
囚 15
国际货币@@ 15
坍@@ 15
坚 15
坪 15
坷 15
垫 15
堤 15
奏 15
妄 15
孜@@ 15
实用@@ 15
寺@@ 15
巢 15
廉 15
廓 15
弯 15
弯@@ 15
彻 15
彼 15
德曼 15
怯@@ 15
总的@@ 15
惶@@ 15
慷@@ 15
托斯 15
技 15
拒绝@@ 15
挣 15
挽@@ 15
揭 15
摧 15
收入@@ 15
斑@@ 15
斤@@ 15
斯科@@ 15
旱 15
显出 15
枕@@ 15
柜 15
棋 15
棒@@ 15
椅 15
楚@@ 15
正常@@ 15
沛 15
沸@@ 15
涡@@ 15
班加@@ 15
琴@@ 15
甚远 15
矣 15
秒@@ 15
笋 15
筑@@ 15
羽@@ 15
脾@@ 15
臆@@ 15
艺术@@ 15
艾哈@@ 15
蒿@@ 15
蚀 15
衍@@ 15
袍 15
观察@@ 15
誉 15
讦 15
讽@@ 15
负责@@ 15
负面@@ 15
贬@@ 15
踩 15
蹩@@ 15
躬@@ 15
躲 15
远远@@ 15
逢@@ 15
遣 15
邀 15
钳@@ 15
铭@@ 15
锋@@ 15
镀@@ 15
阁@@ 15
阿拉@@ 15
霉 15
靶@@ 15
马克思@@ 15
驱 15
鹿 15
CC 14
Coun@@ 14
Sec@@ 14
Summ@@ 14
¬ 14
不用@@ 14
之又@@ 14
之计 14
二氧化@@ 14
仪@@ 14
住房@@ 14
体化 14
侍@@ 14
侥@@ 14
傲 14
兄 14
关注@@ 14
冯 14
剔 14
卒 14
南克 14
厌 14
厕@@ 14
合物 14
否决@@ 14
啡@@ 14
喂 14
喇@@ 14
喉@@ 14
喷 14
囹@@ 14
囿@@ 14
圄 14
域@@ 14
壕 14
大而 14
嫖@@ 14
寂 14
屁@@ 14
希腊@@ 14
帽@@ 14
弩@@ 14
徕 14
快速@@ 14
恒 14
恙 14
悚@@ 14
惨 14
惰@@ 14
憎 14
戚@@ 14
所欲 14
扔@@ 14
掘@@ 14
揣@@ 14
斧 14
无关@@ 14
昂@@ 14
映 14
朱 14
枷@@ 14
柴 14
殃 14
毅@@ 14
氦@@ 14
沟@@ 14
流动@@ 14
淀@@ 14
溉@@ 14
燎@@ 14
狼@@ 14
猜 14
玫@@ 14
百分@@ 14
着眼@@ 14
睬 14
矛@@ 14
矮@@ 14
硅 14
秀@@ 14
穆斯@@ 14
窍 14
立学校 14
竹@@ 14
笃 14
笼 14
粟 14
纭 14
纺@@ 14
缛@@ 14
缝@@ 14
缸 14
罗斯@@ 14
翘@@ 14
胖@@ 14
脊@@ 14
腹 14
舒 14
苛@@ 14
茫@@ 14
藉@@ 14
藻 14
蜕@@ 14
行动@@ 14
览@@ 14
讧 14
诀@@ 14
豆@@ 14
赅 14
踩@@ 14
躁@@ 14
迦@@ 14
遏@@ 14
郁@@ 14
鄙 14
闭 14
阿根@@ 14
陀 14
陶@@ 14
韦 14
颁@@ 14
飙 14
饶@@ 14
鸣 14
黛@@ 14
198@@ 13
Instit@@ 13
Is@@ 13
ash 13
ž 13
不计 13
不通 13
与会@@ 13
专 13
乃@@ 13
互 13
任者 13
伊斯@@ 13
倚 13
券市场 13
口气 13
哄@@ 13
圭@@ 13
埃塞俄@@ 13
塑 13
塞尔@@ 13
多元@@ 13
大党 13
夹 13
奧 13
孟加拉@@ 13
宅 13
宇 13
宛@@ 13
寂@@ 13
寨 13
尔顿 13
尿@@ 13
屈 13
岁@@ 13
岗@@ 13
弦 13
怜@@ 13
恨@@ 13
慌 13
懊@@ 13
懦@@ 13
手无@@ 13
扳@@ 13
挂@@ 13
捞 13
掠 13
掩 13
摘 13
摩尔@@ 13
攀@@ 13
料到 13
无论@@ 13
既得@@ 13
日常@@ 13
有利@@ 13
杭@@ 13
梭 13
歉@@ 13
民党 13
气候@@ 13
氨@@ 13
汽 13
沙尔 13
沦 13
法外 13
泾@@ 13
渭@@ 13
溜@@ 13
炙@@ 13
炬 13
狄 13
狙@@ 13
狩@@ 13
环保@@ 13
瑚 13
痼@@ 13
瞎@@ 13
瞻@@ 13
祖 13
秘书@@ 13
稽 13
简单@@ 13
粮 13
纵 13
绎 13
绒 13
绪 13
缉@@ 13
罢 13
而论 13
肋 13
肠@@ 13
肢@@ 13
胸 13
脉@@ 13
膀 13
膳@@ 13
蜡@@ 13
蝇 13
衬@@ 13
讳@@ 13
貌@@ 13
贝鲁@@ 13
贡 13
赈@@ 13
跋@@ 13
跛@@ 13
踢@@ 13
躯@@ 13
辟 13
逸@@ 13
邃 13
钝 13
铝 13
锅 13
锚@@ 13
锤@@ 13
隘 13
震 13
霉@@ 13
靡 13
韧 13
颗@@ 13
颠 13
饮 13
馅@@ 13
骚@@ 13
魂 13
魄 13
魄@@ 13
鹅@@ 13
鹰 13
黜 13
ARC 12
Intern@@ 12
NC@@ 12
Z 12
ook 12
ª 12
ñ 12
一次@@ 12
丸 12
候@@ 12
债务@@ 12
偏 12
傅@@ 12
克萨@@ 12
共和@@ 12
共处 12
兴奋@@ 12
兽@@ 12
冉@@ 12
册@@ 12
冕@@ 12
凉 12
凸@@ 12
创始@@ 12
加拿@@ 12
努 12
劲@@ 12
匆 12
匆@@ 12
匈牙@@ 12
卧@@ 12
叮@@ 12
咫@@ 12
咸@@ 12
啤@@ 12
嚷 12
坊 12
坎 12
堡@@ 12
外逃 12
大化 12
奋 12
奎 12
娼 12
孽 12
寄 12
少年 12
尝 12
峡 12
崭@@ 12
巅@@ 12
布里@@ 12
年龄@@ 12
得上 12
心协力 12
悼@@ 12
惹 12
慈 12
慕@@ 12
扼@@ 12
拆 12
拦 12
择 12
捏 12
搏@@ 12
撤 12
操 12
斩 12
晶 12
曰 12
朔 12
框@@ 12
械 12
梵@@ 12
棺@@ 12
概 12
榈@@ 12
殷@@ 12
氮@@ 12
汞 12
泣 12
注目 12
浦 12
浴 12
涛 12
渥 12
焉 12
特拉@@ 12
狮@@ 12
狼 12
猬 12
猴@@ 12
理学家 12
疯 12
痍 12
监 12
矢 12
矢@@ 12
破产@@ 12
碱@@ 12
碾@@ 12
磕@@ 12
私有@@ 12
稣@@ 12
窝@@ 12
竭@@ 12
篮 12
篮@@ 12
粹@@ 12
糕@@ 12
糙 12
纳粹@@ 12
络@@ 12
缆 12
美元@@ 12
羡 12
羽 12
肖@@ 12
胶@@ 12
脂 12
脂@@ 12
腔 12
膝 12
舱 12
芒@@ 12
芜 12
茅@@ 12
菅 12
詹@@ 12
询@@ 12
诵 12
趸 12
辱 12
迭@@ 12
迹@@ 12
郁 12
须@@ 12
驶 12
骇@@ 12
鲨 12
鹜 12
黎 12
$ 11
FT@@ 11
IV 11
ation@@ 11
一无所@@ 11
不惜@@ 11
与此@@ 11
丘@@ 11
仆@@ 11
允 11
兄弟@@ 11
兔@@ 11
兰经 11
冥@@ 11
出生@@ 11
剽@@ 11
原教@@ 11
吞 11
吸 11
哥伦比@@ 11
哨@@ 11
唆 11
唇@@ 11
啥 11
垂 11
塔尔 11
夕 11
妈@@ 11
妻@@ 11
姻 11
娘@@ 11
官僚@@ 11
宰 11
巅 11
庄 11
廖@@ 11
弘 11
御@@ 11
德拉@@ 11
忌惮 11
怯 11
恫@@ 11
悍@@ 11
悖 11
悬 11
悼 11
惰 11
披 11
抬 11
拉丁@@ 11
拧@@ 11
拳 11
挠 11
擅@@ 11
教科@@ 11
斜@@ 11
无休@@ 11
时日 11
昙@@ 11
昧@@ 11
朴 11
杞@@ 11
柔 11
栗 11
栽@@ 11
桀@@ 11
桃@@ 11
椅@@ 11
槽 11
殉@@ 11
殊 11
殿@@ 11
沫@@ 11
沼 11
泵 11
涓@@ 11
淫@@ 11
渲@@ 11
漂 11
烛 11
烩 11
煞@@ 11
牍 11
牒 11
狭 11
珍 11
琳@@ 11
瑰 11
甫 11
益于 11
盾@@ 11
瞪@@ 11
硝@@ 11
碌@@ 11
祥@@ 11
祭 11
禅 11
窟@@ 11
窿 11
符@@ 11
粒@@ 11
粗 11
绷 11
罗德 11
翅 11
翼@@ 11
聋@@ 11
肠 11
胖 11
胰@@ 11
胶 11
腺@@ 11
臣 11
自动@@ 11
舆@@ 11
苗 11
茫 11
董 11
蓬 11
褒@@ 11
觊@@ 11
觎 11
譬@@ 11
讥@@ 11
议者 11
诃@@ 11
谎 11
谙 11
贻@@ 11
赔 11
躇 11
躯 11
轰 11
轴@@ 11
辑@@ 11
迫切@@ 11
遏 11
郭 11
铐 11
铭 11
铸 11
阂 11
陋@@ 11
隧@@ 11
馈 11
骚 11
骜@@ 11
鳕@@ 11
鹤@@ 11
AA 10
Euro@@ 10
NA 10
Securi@@ 10
evelop@@ 10
lim@@ 10
stit@@ 10
不如@@ 10
亥@@ 10
仑@@ 10
克罗@@ 10
关塔那@@ 10
凌 10
利率@@ 10
剪 10
匈 10
匠 10
匹 10
叙 10
可图 10
君 10
吹 10
呐@@ 10
哨 10
哮 10
喉 10
喻@@ 10
嗅@@ 10
团结@@ 10
垦 10
塘 10
墉 10
增值@@ 10
媾@@ 10
孵@@ 10
寨@@ 10
导性 10
尝@@ 10
尼泊@@ 10
屑 10
屡 10
巴布@@ 10
幅@@ 10
库尔德@@ 10
彰 10
心脏@@ 10
悉 10
悯 10
惮 10
懈 10
抖 10
拉圭 10
挡@@ 10
携 10
敛@@ 10
晒@@ 10
智能@@ 10
杀伤@@ 10
杨 10
林宫 10
柬埔@@ 10
格鲁吉@@ 10
棚@@ 10
棣@@ 10
椭@@ 10
榨 10
武库 10
毅 10
毕业@@ 10
氟@@ 10
汁 10
沟 10
泥 10
泳@@ 10
浩 10
淆@@ 10
淘@@ 10
淹@@ 10
漓@@ 10
火箭@@ 10
灵活@@ 10
爬@@ 10
爷@@ 10
狠 10
狠@@ 10
猫@@ 10
甄@@ 10
生育@@ 10
痕 10
直升@@ 10
睢 10
研 10
砸@@ 10
禄 10
穴 10
竟@@ 10
簿 10
纤 10
纲@@ 10
织@@ 10
缭@@ 10
罂@@ 10
罩 10
耍 10
肪@@ 10
胃@@ 10
膜 10
荫@@ 10
萃 10
萌 10
萎 10
营企业 10
蔚@@ 10
蕉 10
蕾@@ 10
藉 10
藤 10
蚊 10
西方@@ 10
诞@@ 10
豹 10
质性 10
贯 10
贺@@ 10
赏@@ 10
赐@@ 10
赚@@ 10
赡@@ 10
赴@@ 10
轨@@ 10
辄 10
递 10
遑@@ 10
邓@@ 10
酬 10
里兰@@ 10
钻 10
镖 10
陀@@ 10
难性 10
韧@@ 10
驯 10
驼 10
魏 10
鳍 10
Jos@@ 9
É 9
ê 9
不决 9
乳 9
亚马@@ 9
传染@@ 9
偷 9
入学@@ 9
凯 9
券@@ 9
剿 9
北美@@ 9
协力 9
卦 9
原则@@ 9
各种@@ 9
吉尔 9
吠 9
咆@@ 9
喙 9
嘎@@ 9
在实践@@ 9
垮@@ 9
大体@@ 9
太阳@@ 9
姓 9
婴@@ 9
嫁 9
容性 9
小儿麻@@ 9
屏 9
岭 9
崎@@ 9
庇 9
弧@@ 9
径@@ 9
忍 9
忱 9
忽略@@ 9
怂@@ 9
怎么@@ 9
恰 9
恿 9
懦 9
戳@@ 9
扁@@ 9
拭@@ 9
挟@@ 9
振奋 9
捐 9
掷@@ 9
提供@@ 9
揣 9
摈@@ 9
擘 9
攫@@ 9
文主义 9
斋@@ 9
斐 9
斯大@@ 9
昔@@ 9
映@@ 9
晤@@ 9
暑@@ 9
曝@@ 9
棵 9
槃 9
歇 9
毯 9
汹 9
沂 9
沌 9
沧@@ 9
波斯@@ 9
泪 9
洽 9
浦@@ 9
润 9
淌 9
滔@@ 9
瀑@@ 9
灌 9
灰 9
焉@@ 9
焦 9
爪 9
爸 9
瑕 9
疫@@ 9
瘦 9
癖@@ 9
盈 9
眠@@ 9
稣 9
笛@@ 9
篱@@ 9
簸 9
粪 9
纬@@ 9
结核 9
翁 9
腻 9
舵 9
苟 9
苷@@ 9
茄 9
葡@@ 9
蜘@@ 9
蜜 9
行性 9
裤 9
褪@@ 9
襁@@ 9
诧@@ 9
诬@@ 9
诲 9
谊 9
贿@@ 9
趁 9
超级@@ 9
踏 9
辉@@ 9
辖 9
近几@@ 9
追 9
遑 9
郎@@ 9
醛 9
铃@@ 9
铉 9
铝@@ 9
键 9
阿勒@@ 9
除此@@ 9
雌@@ 9
饼@@ 9
馆@@ 9
马斯 9
驾 9
魂@@ 9
鳄 9
! 8
Rob@@ 8
â 8
不久@@ 8
东北@@ 8
人力@@ 8
仆 8
佼@@ 8
侄@@ 8
侵 8
冻@@ 8
凤@@ 8
制度@@ 8
勘@@ 8
匀 8
十九@@ 8
厄 8
叉@@ 8
反应@@ 8
叔@@ 8
吐 8
咋 8
咽@@ 8
哀 8
哮@@ 8
啦@@ 8
喹 8
嘎 8
国会@@ 8
国务@@ 8
妃 8
妆@@ 8
婆 8
媚 8
寇@@ 8
巫 8
弘@@ 8
忆 8
忌@@ 8
恃@@ 8
悠@@ 8
愎@@ 8
愕 8
戟@@ 8
扮@@ 8
抄@@ 8
投机@@ 8
挚 8
挤 8
捉 8
掮@@ 8
撑 8
收益@@ 8
斯洛伐@@ 8
晦@@ 8
有效@@ 8
朋 8
权者 8
杖 8
格鲁@@ 8
框 8
梯@@ 8
楔@@ 8
氰@@ 8
泉 8
泻@@ 8
泼@@ 8
消极@@ 8
涝 8
淀 8
湾@@ 8
溢@@ 8
漆 8
潦@@ 8
灿@@ 8
焚 8
爸@@ 8
犹豫@@ 8
猴 8
琢@@ 8
畔 8
疏 8
疼 8
瘠 8
盆 8
盒@@ 8
眈 8
眈@@ 8
眨@@ 8
眩@@ 8
瞩 8
矗@@ 8
砖@@ 8
砝@@ 8
砥@@ 8
神社 8
禽 8
稚@@ 8
窠@@ 8
笆 8
筒 8
籍@@ 8
粪@@ 8
纹@@ 8
绍@@ 8
缀 8
缉 8
缮 8
罄 8
罐 8
翰 8
肾 8
腔@@ 8
膏@@ 8
臼 8
舶 8
芸@@ 8
蕾 8
藤@@ 8
蚀@@ 8
蛛@@ 8
蠕@@ 8
袋@@ 8
裁 8
访者 8
谩@@ 8
谭 8
赋@@ 8
践@@ 8
踊@@ 8
蹲 8
辆@@ 8
辗@@ 8
辰 8
迂@@ 8
逍@@ 8
遂@@ 8
遐@@ 8
邀@@ 8
酪 8
钩 8
铤@@ 8
阉@@ 8
阪 8
霄@@ 8
靡@@ 8
页@@ 8
颁 8
颜 8
颤@@ 8
骂@@ 8
魇 8
鳌 8
鸦@@ 8
鹰@@ 8
黄 8
． 8
@ 7
Geor@@ 7
Heal@@ 7
Q 7
TT@@ 7
\ 7
eric@@ 7
evelopment 7
ute 7
ú 7
‑ 7
不动@@ 7
丐 7
义者 7
亚于 7
仔 7
仗@@ 7
伺@@ 7
侯 7
俊 7
傍@@ 7
儒 7
养老@@ 7
凉@@ 7
函 7
危险@@ 7
县@@ 7
吁@@ 7
同情@@ 7
呃 7
呕 7
哈佛@@ 7
嘉 7
噤@@ 7
基金@@ 7
复燃 7
外国@@ 7
天然@@ 7
夯@@ 7
姑 7
姿@@ 7
婉@@ 7
孩@@ 7
孰@@ 7
对性 7
尔巴@@ 7
履 7
岑 7
岔 7
峭 7
峻 7
帜 7
幼 7
庶 7
弓@@ 7
归根@@ 7
彭 7
怠 7
悍 7
惶 7
愁 7
慈@@ 7
懑 7
懒 7
戎@@ 7
抑 7
摔@@ 7
撩@@ 7
撰 7
数字@@ 7
新加@@ 7
无遗 7
晾 7
格鲁 7
梁 7
棚 7
榴@@ 7
氚 7
汪@@ 7
沐@@ 7
湿 7
烁@@ 7
焕 7
燕 7
犬 7
狈@@ 7
理所@@ 7
琉@@ 7
瑕@@ 7
申 7
疤 7
病率 7
瘁 7
相比@@ 7
瞎 7
硅@@ 7
碟 7
突 7
窜@@ 7
竞争@@ 7
竞选@@ 7
竹 7
箴@@ 7
纾@@ 7
绅@@ 7
翔 7
耽@@ 7
肓 7
肯尼@@ 7
胥@@ 7
脆弱@@ 7
脖@@ 7
膏 7
舵@@ 7
艳 7
芥@@ 7
萄 7
萨尔@@ 7
蔡@@ 7
藕 7
虞 7
蛛 7
蛾 7
蜗@@ 7
觞 7
讹@@ 7
谐@@ 7
谑 7
谟 7
谣 7
谲 7
赘@@ 7
跛 7
踯@@ 7
轧 7
邓小@@ 7
邵@@ 7
郁症 7
钩@@ 7
锌 7
阅@@ 7
阪@@ 7
陪 7
鞠@@ 7
香 7
驴 7
骼 7
魅@@ 7
鲍 7
鸭@@ 7
鸵@@ 7
鹫 7
龟 7
０ 7
Pau@@ 6
anci@@ 6
evel@@ 6
obal 6
ć 6
〕 6
一夜@@ 6
一小@@ 6
三角@@ 6
不无@@ 6
不足为@@ 6
世贸@@ 6
临床@@ 6
么@@ 6
乖@@ 6
亘 6
仙 6
侃 6
克什@@ 6
兢@@ 6
公务@@ 6
冶@@ 6
凋@@ 6
几内@@ 6
函@@ 6
剖 6
剥 6
劝 6
加利@@ 6
勉@@ 6
勿 6
匀@@ 6
匝@@ 6
匪 6
卫生组织 6
发动@@ 6
发言@@ 6
叔 6
各自为@@ 6
向型 6
吟@@ 6
否@@ 6
吼 6
咎@@ 6
喇嘛 6
夭 6
夭@@ 6
妹@@ 6
娴@@ 6
婆@@ 6
嫩 6
嫩@@ 6
寐@@ 6
寰 6
尔西 6
尸 6
崇 6
嵌 6
川@@ 6
帅@@ 6
年轻@@ 6
庙@@ 6
彦@@ 6
役@@ 6
徐@@ 6
德隆 6
忠 6
忾 6
恳 6
意味@@ 6
戮 6
扇 6
拮@@ 6
掀@@ 6
掂@@ 6
揽@@ 6
搏 6
撮@@ 6
擂 6
擦 6
新生@@ 6
晃@@ 6
服于 6
朦@@ 6
权国家 6
枉@@ 6
枢@@ 6
某种@@ 6
桶@@ 6
殃@@ 6
殚@@ 6
氯 6
沓@@ 6
沪 6
沾 6
泌 6
波罗的@@ 6
泼 6
涣@@ 6
涵 6
深地 6
渠 6
渣 6
渣@@ 6
渥@@ 6
渺@@ 6
溯到 6
满情绪 6
漆@@ 6
炒 6
炽@@ 6
爽@@ 6
琼 6
璃@@ 6
甜 6
痊@@ 6
目的@@ 6
瞧 6
矩@@ 6
砍 6
硕 6
硫@@ 6
碗@@ 6
祟 6
祷@@ 6
禧@@ 6
秽 6
穹@@ 6
窍@@ 6
窜 6
米亚 6
粥 6
纳米@@ 6
纽 6
结核@@ 6
绽@@ 6
缚 6
罐@@ 6
翅@@ 6
耄@@ 6
耍@@ 6
聒@@ 6
聩 6
肆 6
肌 6
胧 6
脊 6
脔 6
腊 6
自相@@ 6
臬 6
臭 6
苯 6
茉@@ 6
茵@@ 6
荧@@ 6
荼@@ 6
莹 6
营利 6
蒋 6
蚂@@ 6
蜃@@ 6
蝗@@ 6
衔@@ 6
衬 6
褓 6
诺贝尔@@ 6
诽@@ 6
谛 6
谤@@ 6
豚 6
象征@@ 6
豢@@ 6
贞@@ 6
败者 6
贮@@ 6
赤 6
趟 6
踵 6
躅 6
轫 6
轴 6
辐@@ 6
达尔@@ 6
遂 6
邮 6
郡 6
都是 6
酮 6
釜@@ 6
钓 6
钦 6
锯 6
锯@@ 6
锰 6
镑 6
阑@@ 6
阴 6
限性 6
雕 6
靓@@ 6
韬@@ 6
预 6
颓@@ 6
饵 6
骎 6
骸 6
鳞@@ 6
麾@@ 6
﹒ 6
２ 6
NP@@ 5
ancial 5
itter 5
ship 5
č 5
ş 5
〔 5
中国海 5
丸@@ 5
主席@@ 5
之急 5
乖 5
乾 5
亚历@@ 5
交道 5
亿万@@ 5
仕@@ 5
伞@@ 5
伽 5
佣 5
佩克 5
侨 5
侮 5
俨@@ 5
催化@@ 5
僻@@ 5
儆@@ 5
冀 5
冀@@ 5
协 5
卓 5
厢 5
厥 5
厥@@ 5
叭 5
呕@@ 5
呵@@ 5
哄 5
哗 5
哭 5
啮@@ 5
啼@@ 5
嘘@@ 5
噱@@ 5
圭 5
坠 5
填 5
壶 5
大手@@ 5
大西@@ 5
妆 5
妒@@ 5
妓 5
委员@@ 5
娜@@ 5
婿 5
孀 5
孤立@@ 5
宴@@ 5
岔@@ 5
巡 5
庐 5
库尔@@ 5
弋 5
怎 5
恤 5
悟@@ 5
悦@@ 5
惘 5
惜@@ 5
惫@@ 5
惴@@ 5
愉@@ 5
意识@@ 5
戳 5
扑 5
扳 5
扶 5
批评@@ 5
抄 5
抓住@@ 5
抵押@@ 5
抽 5
拙@@ 5
拣@@ 5
括@@ 5
拯@@ 5
拱 5
挞 5
捡@@ 5
掐@@ 5
揪@@ 5
擂@@ 5
攒 5
攒@@ 5
无处@@ 5
旷@@ 5
晕 5
暑 5
暹@@ 5
朊@@ 5
未决 5
机器@@ 5
杨@@ 5
杭 5
枢 5
柬 5
柿 5
格兰 5
棵@@ 5
椒 5
次于 5
歹@@ 5
歼@@ 5
毛泽@@ 5
毡 5
氏度 5
沆@@ 5
泯@@ 5
洼 5
浆@@ 5
浇@@ 5
浙@@ 5
涤 5
湎 5
溯@@ 5
滨@@ 5
濑@@ 5
瀚 5
瀣@@ 5
烤 5
烤@@ 5
烬 5
烯 5
熙@@ 5
猝@@ 5
猥@@ 5
瓦哈@@ 5
疲 5
疽 5
痴 5
瘤@@ 5
癣 5
癫@@ 5
盏 5
瞥 5
瞰 5
矮 5
砌 5
碌 5
碍 5
碟@@ 5
磁 5
祀 5
禀 5
科威@@ 5
稀 5
稿@@ 5
竣@@ 5
笞 5
筝 5
簇@@ 5
簧 5
糖尿@@ 5
繁 5
纂 5
纳税@@ 5
绵 5
缅 5
翁@@ 5
聋 5
聘 5
肺 5
胜利@@ 5
腊@@ 5
腕@@ 5
膺 5
臻@@ 5
舍尔 5
芙 5
芦 5
茜 5
茧@@ 5
茵 5
葫@@ 5
蒲@@ 5
蔗 5
蘑@@ 5
蛙 5
袁@@ 5
裙 5
讼@@ 5
诘 5
谎@@ 5
谱@@ 5
豫 5
贤 5
贸易区 5
赃 5
赘 5
赠 5
踝 5
踞 5
蹄 5
辅 5
迸@@ 5
逗 5
逡@@ 5
遁@@ 5
邪 5
酱 5
醋 5
重来 5
钨 5
铢 5
键@@ 5
镣@@ 5
镶@@ 5
长久@@ 5
陵 5
顷@@ 5
颅 5
馏 5
驰 5
驴@@ 5
驼@@ 5
骑 5
麓 5
麦肯@@ 5
黏@@ 5
黩@@ 5
鼻 5
１ 5
９ 5
Ｄ 5
Ｇ 5
～ 5
Fri@@ 4
GD@@ 4
GO 4
Mic@@ 4
limate 4
î 4
ğ 4
ľ 4
˚ 4
ε 4
丈@@ 4
丛 4
之重 4
从未@@ 4
伎 4
伎@@ 4
伺 4
佃@@ 4
佑 4
余力 4
侍 4
侮@@ 4
倔@@ 4
倦@@ 4
傻 4
僭 4
僻 4
克罗地@@ 4
兢 4
其反 4
冕 4
冯@@ 4
凯恩 4
凰 4
刁@@ 4
分之二 4
削 4
励@@ 4
募 4
卉 4
卧 4
合情@@ 4
吊 4
吏 4
吟 4
吨@@ 4
启 4
咳 4
咳@@ 4
咽 4
哇 4
哈萨@@ 4
唆@@ 4
唬 4
唳 4
啃 4
啧@@ 4
喀 4
嘈@@ 4
嘶@@ 4
噬 4
嚎 4
嚼 4
嚼@@ 4
圳@@ 4
坛@@ 4
坞 4
堑 4
奥地@@ 4
妊@@ 4
姬@@ 4
姻@@ 4
娇@@ 4
嫡@@ 4
孪@@ 4
孳@@ 4
寡 4
尼克@@ 4
屯@@ 4
屹@@ 4
岖 4
岩 4
岳 4
岳@@ 4
岿@@ 4
巷@@ 4
帑 4
幡@@ 4
幢 4
弈 4
彬@@ 4
彼此@@ 4
忒 4
怕@@ 4
怖 4
恤@@ 4
恬@@ 4
恸 4
惬@@ 4
愁@@ 4
慧 4
憾 4
扇@@ 4
手旁观 4
拧 4
捡 4
捶@@ 4
提款@@ 4
搀@@ 4
撷@@ 4
斯里兰@@ 4
新西@@ 4
旨@@ 4
晒 4
晨@@ 4
暇@@ 4
暮 4
最小@@ 4
栈 4
桂@@ 4
椎 4
椰@@ 4
榻 4
樟@@ 4
歹 4
殴 4
毫 4
毯@@ 4
氘 4
泉@@ 4
洒@@ 4
浊 4
涎@@ 4
涛@@ 4
涟@@ 4
涯 4
淋 4
淤@@ 4
淹 4
湛 4
溜 4
滋 4
漠 4
漪 4
潜 4
澡@@ 4
炊@@ 4
炫 4
烛@@ 4
烫 4
烷@@ 4
煮@@ 4
熨@@ 4
熵 4
爷 4
狐 4
玄@@ 4
玉 4
珉 4
瑙@@ 4
瑰@@ 4
疆 4
疟 4
痉@@ 4
痫 4
癖 4
盯@@ 4
眩 4
眷@@ 4
睦 4
睽 4
睽@@ 4
瞒@@ 4
砖 4
砾 4
磷 4
礁@@ 4
祝 4
突破@@ 4
筏 4
箍@@ 4
纰@@ 4
纱 4
纳维亚 4
结为 4
绷@@ 4
绽 4
缚@@ 4
羸@@ 4
耋@@ 4
而言之 4
耿 4
肖 4
肴 4
肿@@ 4
胃 4
脓@@ 4
脯 4
腑 4
腥@@ 4
腮@@ 4
舔 4
舛 4
舶@@ 4
英格兰@@ 4
茂 4
茎 4
莓 4
莲@@ 4
萧@@ 4
蕞@@ 4
薛@@ 4
薯@@ 4
藻@@ 4
蚱 4
蜒 4
蜗 4
蜿@@ 4
蝠 4
蝴@@ 4
螺 4
蟒 4
衮@@ 4
袒@@ 4
裴@@ 4
裸 4
讥 4
诧 4
说是 4
谅@@ 4
貉 4
贞 4
贤@@ 4
贬 4
贱 4
跪 4
跻@@ 4
躺@@ 4
辣 4
辣@@ 4
边缘@@ 4
迦 4
退休@@ 4
逗@@ 4
通性 4
邓 4
酌 4
酿 4
钝@@ 4
钮 4
铅@@ 4
锂 4
锅@@ 4
锈 4
锈@@ 4
锥@@ 4
锦 4
闪 4
闸 4
阀@@ 4
隅@@ 4
靖@@ 4
靴@@ 4
靶 4
颈 4
飚 4
馁 4
馈@@ 4
馑 4
髋@@ 4
鲑@@ 4
鲔 4
鳄@@ 4
鳌@@ 4
鳐 4
鸦 4
麟@@ 4
黔@@ 4
龟@@ 4
５ 4
* 3
AK@@ 3
Dav@@ 3
Sum@@ 3
Thom@@ 3
cil 3
ebook 3
ner@@ 3
Ö 3
ø 3
‧ 3
・ 3
上万 3
不大@@ 3
乒@@ 3
事会 3
于事 3
于此 3
亘@@ 3
亢@@ 3
产油@@ 3
以色@@ 3
佯@@ 3
侃@@ 3
侏@@ 3
侠 3
俭@@ 3
偕@@ 3
偿还@@ 3
僧 3
儡@@ 3
允@@ 3
兔 3
兮 3
冤 3
凛@@ 3
刍@@ 3
刘 3
刨@@ 3
刮 3
剂@@ 3
加利福@@ 3
勉 3
卡扎@@ 3
厩 3
叩@@ 3
吝 3
呻@@ 3
咯 3
咱@@ 3
哑@@ 3
啸@@ 3
嗓@@ 3
嗽 3
嘛 3
嚎@@ 3
嚏 3
嚷@@ 3
囱 3
坤 3
垒@@ 3
垠 3
塞拉@@ 3
多瓦 3
夥 3
太平@@ 3
央@@ 3
奚@@ 3
奥运@@ 3
姨@@ 3
姿 3
娼@@ 3
媚@@ 3
媛 3
媳 3
嬉@@ 3
孚@@ 3
孝@@ 3
孢@@ 3
孰 3
宋 3
宏 3
实现@@ 3
寞 3
尉 3
尿 3
岂 3
峭@@ 3
崔 3
崖@@ 3
巴勒@@ 3
布里奇 3
帜@@ 3
幄 3
平面 3
幺 3
庞 3
庶@@ 3
弓 3
弥 3
弧 3
当今@@ 3
彷@@ 3
徊@@ 3
徐 3
徘@@ 3
徳@@ 3
忿 3
忿@@ 3
怜 3
怡 3
性病 3
恢@@ 3
恺@@ 3
悯@@ 3
悲 3
惕@@ 3
惭 3
惺@@ 3
憩 3
憾@@ 3
懵 3
扈 3
扛@@ 3
扭 3
抒@@ 3
拂@@ 3
拈@@ 3
拐 3
拗 3
拗@@ 3
拣 3
挛 3
挥 3
捂@@ 3
掏 3
排放@@ 3
揉 3
搁 3
撮 3
斓 3
斟@@ 3
斧@@ 3
斯堪@@ 3
旭 3
昏 3
昵@@ 3
晃 3
晓@@ 3
暂 3
暨 3
暮@@ 3
曝 3
曳 3
朊 3
朴槿@@ 3
杉@@ 3
杏@@ 3
杠 3
柏 3
柳 3
标志@@ 3
株@@ 3
格达 3
桃 3
档@@ 3
梢 3
榄 3
槟 3
槽@@ 3
檄@@ 3
次世界大战 3
欺 3
正教 3
毁灭@@ 3
民意@@ 3
氨 3
沃斯 3
沽@@ 3
波士@@ 3
注意@@ 3
洽@@ 3
涎 3
涤@@ 3
渔 3
渠@@ 3
游戏@@ 3
湃 3
滇@@ 3
滕 3
滕@@ 3
滤@@ 3
滥 3
漓 3
澎@@ 3
澳 3
灶@@ 3
烁 3
烯@@ 3
焊@@ 3
煞 3
熏@@ 3
熬@@ 3
燕@@ 3
狞 3
狰@@ 3
猾@@ 3
猿@@ 3
琅 3
瑜 3
瑟夫 3
瓷@@ 3
生机@@ 3
疡 3
疥@@ 3
疱@@ 3
疴 3
痰 3
瘫 3
皂 3
皎 3
盔 3
眺 3
睾@@ 3
碘@@ 3
碧@@ 3
磐@@ 3
禅@@ 3
秃 3
秦@@ 3
窄@@ 3
窑 3
立陶@@ 3
竞 3
笨 3
筱@@ 3
篓@@ 3
篝@@ 3
篷@@ 3
簇 3
簿@@ 3
糅@@ 3
紊 3
绚@@ 3
绸 3
罗姆@@ 3
翔@@ 3
而下 3
耸 3
胀@@ 3
胁 3
胳@@ 3
膊 3
膝@@ 3
膦 3
臂@@ 3
臻 3
艰 3
芋 3
芙@@ 3
芜@@ 3
芳@@ 3
芽@@ 3
苏维@@ 3
茂@@ 3
茧 3
菇 3
葩 3
葱 3
葵 3
藕@@ 3
虔@@ 3
虹 3
虹@@ 3
蚁 3
蛀@@ 3
蛾@@ 3
蜱 3
蝉 3
蝶 3
衫@@ 3
褓@@ 3
诙@@ 3
赃@@ 3
赫特 3
赳 3
赵 3
踉@@ 3
蹋 3
蹲@@ 3
轧@@ 3
轶@@ 3
辑 3
达成@@ 3
迄今@@ 3
迅 3
进行@@ 3
连串 3
逛 3
逾@@ 3
郭@@ 3
野生@@ 3
钋 3
钓鱼@@ 3
钧@@ 3
钽 3
钾@@ 3
铃 3
铛@@ 3
铬 3
铰@@ 3
锏 3
锒@@ 3
锤 3
镉 3
闸@@ 3
陨@@ 3
陲 3
隅 3
雌 3
雳 3
霹@@ 3
靼@@ 3
鞅 3
鞑@@ 3
韪 3
韵@@ 3
颐@@ 3
飘 3
馊@@ 3
首脑@@ 3
驮 3
骛 3
骛@@ 3
骰@@ 3
鰩 3
鱿@@ 3
鳃 3
鸿@@ 3
鹏 3
鼬 3
齐兹 3
 3
︰ 3
６ 3
Ｐ 3
= 2
Part@@ 2
conom@@ 2
shi@@ 2
vest@@ 2
× 2
ē 2
ı 2
ł 2
【 2
】 2
上而下 2
乓@@ 2
乙 2
于零 2
亩@@ 2
亭 2
亵 2
人道@@ 2
仕 2
付出@@ 2
伸 2
侨@@ 2
俏 2
俏@@ 2
俚@@ 2
俟 2
修正@@ 2
倭 2
偃@@ 2
健 2
傅 2
僚@@ 2
僵 2
兜 2
全胜 2
兮@@ 2
凝聚@@ 2
出租@@ 2
切实际 2
利昂 2
制定@@ 2
力于 2
励 2
匈@@ 2
匍@@ 2
匕@@ 2
匠@@ 2
博物@@ 2
卢斯科@@ 2
卤@@ 2
卯@@ 2
厕 2
原子能@@ 2
厦@@ 2
参 2
发制人 2
发挥@@ 2
叨 2
叨@@ 2
叵@@ 2
吁 2
听闻 2
吼@@ 2
呗 2
呜@@ 2
周期@@ 2
咀@@ 2
和平奖 2
咙 2
咙@@ 2
哔 2
哟 2
哲 2
哼 2
唇 2
唑 2
啃@@ 2
啄 2
啄@@ 2
啉 2
啜@@ 2
啸 2
喑 2
喹@@ 2
嗅 2
嗒 2
嗡@@ 2
嗣 2
嗤@@ 2
嘀@@ 2
嘟@@ 2
噎@@ 2
噩 2
囔 2
囤@@ 2
国与@@ 2
土耳@@ 2
均收入 2
坊@@ 2
坍 2
坑@@ 2
坪@@ 2
垒 2
垢 2
埃塞@@ 2
堑@@ 2
墩 2
壕@@ 2
壹 2
夙@@ 2
多克 2
大相@@ 2
奕 2
奠 2
奢 2
她@@ 2
妨@@ 2
姗 2
姚@@ 2
娓@@ 2
娠 2
娠@@ 2
娶 2
娶@@ 2
婶 2
婶@@ 2
孛 2
宕 2
宕@@ 2
定书 2
宵 2
宵@@ 2
寅 2
寮 2
尼西亚 2
岖@@ 2
岱@@ 2
崖 2
崛@@ 2
崴 2
帆 2
帘 2
帙@@ 2
帚@@ 2
年人 2
廓@@ 2
影响@@ 2
徇@@ 2
徜@@ 2
御 2
徨 2
徳 2
徽 2
徽@@ 2
忐@@ 2
忝 2
怠@@ 2
悚 2
悠 2
悴 2
悸 2
慕尼@@ 2
慷 2
憔@@ 2
懵@@ 2
戎 2
成千@@ 2
戟 2
所为 2
扮演@@ 2
拂 2
拇@@ 2
拉姆@@ 2
拢@@ 2
拴 2
拽 2
挑 2
挠@@ 2
挨 2
挽 2
捅 2
捅@@ 2
捆 2
捍 2
损于 2
捣 2
捧@@ 2
捭@@ 2
掐 2
揄 2
揉@@ 2
揶@@ 2
搀 2
搅 2
搓 2
搔@@ 2
搡 2
摇摇@@ 2
摒@@ 2
摧@@ 2
撇 2
擒 2
擢@@ 2
攀 2
攘 2
攘@@ 2
攥 2
收支@@ 2
敝@@ 2
方位 2
方济@@ 2
於 2
时性 2
昌 2
晕@@ 2
晖 2
曹@@ 2
朵@@ 2
朽@@ 2
杉 2
析@@ 2
枕 2
果真@@ 2
枯 2
柜@@ 2
柠@@ 2
栅@@ 2
栓 2
栓@@ 2
栖 2
栩@@ 2
格曼 2
栽 2
桂 2
桓 2
梅内@@ 2
梅尼 2
梗@@ 2
梭@@ 2
械@@ 2
棕 2
棘 2
森堡 2
椎@@ 2
楠 2
榈 2
樊 2
樱@@ 2
檀@@ 2
檬 2
殆 2
殇 2
毋@@ 2
比克 2
氰 2
汐 2
汰 2
沈 2
沓 2
沛@@ 2
沫 2
沽 2
法特 2
波罗@@ 2
泱@@ 2
洼@@ 2
浓 2
涕 2
涯@@ 2
淅@@ 2
淇@@ 2
渝 2
渺 2
湛@@ 2
溅 2
溪@@ 2
溶 2
溺 2
潭@@ 2
澄@@ 2
灼@@ 2
烃 2
烘@@ 2
烙 2
烽@@ 2
焖 2
焰@@ 2
煎 2
燥@@ 2
牡@@ 2
犁@@ 2
犷 2
独裁@@ 2
狮 2
玲@@ 2
玺 2
珐 2
珑 2
琦 2
瑙 2
疼@@ 2
痞@@ 2
痪@@ 2
瘪 2
瘫@@ 2
瘸 2
癣@@ 2
皱@@ 2
皿 2
相去@@ 2
眨 2
睛 2
瞒 2
瞠@@ 2
瞥@@ 2
矜@@ 2
砺 2
碘 2
碱 2
磕 2
磺@@ 2
祟@@ 2
祢 2
祸首 2
科索@@ 2
秧 2
秩@@ 2
秸@@ 2
秽@@ 2
穹 2
窖 2
篑 2
篪 2
籁 2
籽 2
粱@@ 2
糅 2
糜@@ 2
紫 2
綏@@ 2
纂@@ 2
纠 2
纣@@ 2
纫 2
纱@@ 2
纷 2
线图 2
绎@@ 2
绣@@ 2
绰 2
缀@@ 2
缰@@ 2
罹@@ 2
羁 2
羔@@ 2
羚 2
翌@@ 2
翎 2
翡@@ 2
翩 2
翩@@ 2
者之间 2
耋 2
耙@@ 2
聂@@ 2
肃 2
肼 2
腓@@ 2
膀@@ 2
臭名@@ 2
致于 2
舅 2
舅@@ 2
舐 2
舟@@ 2
芦@@ 2
苍 2
苯@@ 2
苷 2
茄@@ 2
茱@@ 2
荆@@ 2
荫 2
莫申科 2
莲 2
菁 2
菇@@ 2
萃@@ 2
萸 2
葆@@ 2
葱@@ 2
蔗@@ 2
蔻 2
蔼 2
蕉@@ 2
蕴 2
薰@@ 2
虻 2
蚁@@ 2
蛋白@@ 2
蛎 2
蛔@@ 2
蛮 2
蜓@@ 2
蜡 2
蜻@@ 2
蝾@@ 2
螂 2
螈 2
蟑@@ 2
袖 2
袜@@ 2
褐@@ 2
褥 2
褪 2
襄@@ 2
讣@@ 2
讷 2
讷@@ 2
诡 2
诱惑@@ 2
诺基@@ 2
诿 2
谀@@ 2
谄@@ 2
谆@@ 2
谍 2
谐 2
谕@@ 2
谙@@ 2
谭@@ 2
谶 2
豌@@ 2
豺@@ 2
赊@@ 2
赫鲁@@ 2
趾@@ 2
跄 2
跚@@ 2
跪@@ 2
践 2
跷@@ 2
蹑@@ 2
蹒@@ 2
蹭 2
躬 2
轩 2
辘 2
迎 2
迩 2
逅 2
逮 2
遗 2
遮 2
邂@@ 2
酚 2
酣 2
酯 2
酰@@ 2
金正@@ 2
钛 2
钠 2
钥 2
钧 2
锣@@ 2
锰@@ 2
镁 2
镁@@ 2
镌@@ 2
镐 2
闺@@ 2
闽@@ 2
阖 2
阙@@ 2
阮@@ 2
阿卜杜@@ 2
阿塞@@ 2
阿塞拜@@ 2
阿姆@@ 2
陕@@ 2
陶 2
随之@@ 2
隘@@ 2
难说 2
霆 2
霆@@ 2
霖 2
霜 2
靴 2
鞭 2
韦斯 2
韵 2
颤 2
颦 2
飙@@ 2
驰@@ 2
骡@@ 2
骷@@ 2
骸@@ 2
髅 2
鬃@@ 2
鲣@@ 2
鲼 2
鸠 2
鸩@@ 2
鹤 2
鹿@@ 2
麋@@ 2
黠 2
龃@@ 2
龉 2
３ 2
７ 2
８ 2
199@@ 1
Micha@@ 1
nership 1
Å 1
Ó 1
Ú 1
ë 1
ô 1
İ 1
ń 1
α 1
β 1
∙ 1
≤ 1
の 1
一想 1
上千 1
不负@@ 1
个世纪 1
乎其@@ 1
乓 1
乔夫 1
乾@@ 1
亟 1
代之 1
仲 1
伊斯坦@@ 1
佞@@ 1
佰@@ 1
侄 1
侈@@ 1
侠@@ 1
侬 1
俎 1
俎@@ 1
俦 1
俳@@ 1
催 1
兀 1
先决@@ 1
克强 1
內@@ 1
全会 1
公信@@ 1
冉 1
冗 1
冢 1
冶 1
冽 1
凄 1
凌驾@@ 1
凹 1
出一辙 1
出不@@ 1
刁 1
分之@@ 1
分水@@ 1
刈 1
删 1
刨 1
刽@@ 1
剞 1
剿@@ 1
劂 1
劈 1
功于 1
加利亚 1
勺 1
勺@@ 1
勾 1
匐 1
匐@@ 1
匣@@ 1
匹马 1
单边@@ 1
卤 1
卫者 1
卿 1
厄瓜@@ 1
厅@@ 1
厨 1
厮@@ 1
发现@@ 1
受制@@ 1
叛 1
叩 1
叱@@ 1
叻 1
叼 1
同于 1
吕 1
吗@@ 1
吠@@ 1
吧@@ 1
吩@@ 1
吭@@ 1
吮@@ 1
吴 1
吾 1
呀 1
呓@@ 1
呢@@ 1
周知 1
呱 1
呱@@ 1
呲 1
咐 1
咤@@ 1
咧@@ 1
咯@@ 1
咸 1
哂 1
哂@@ 1
哑 1
哥伦@@ 1
哩@@ 1
哽@@ 1
唁 1
唠@@ 1
唬@@ 1
啕 1
啬@@ 1
喔 1
喽@@ 1
嗑 1
嗔@@ 1
嗖 1
嗝@@ 1
嗟@@ 1
嗣@@ 1
嗨 1
嗽@@ 1
嘲 1
嘻@@ 1
嘿 1
噤 1
噬@@ 1
因于 1
囤 1
囫@@ 1
囵 1
圉 1
圜 1
地马拉 1
坩@@ 1
坯@@ 1
垣 1
埚 1
堙 1
堰 1
堰@@ 1
墉@@ 1
増 1
墨尔@@ 1
墨西@@ 1
壬@@ 1
壶@@ 1
奁 1
奂 1
奏@@ 1
奕@@ 1
奢侈@@ 1
奧@@ 1
如说 1
妃@@ 1
妪 1
姣@@ 1
姨 1
娄 1
娑 1
娱 1
娿 1
婢 1
婢@@ 1
媲 1
媳@@ 1
嫂 1
嫉 1
嬴 1
孜 1
孝 1
孺 1
孺@@ 1
安哥@@ 1
家宝 1
寅@@ 1
密尔顿 1
富尔 1
寝@@ 1
导者 1
小儿@@ 1
尬 1
尴@@ 1
尼亚胡 1
尼派 1
屁 1
屉 1
屎 1
屐 1
屠 1
屯 1
岂@@ 1
岐@@ 1
岭@@ 1
峋 1
峥@@ 1
峪 1
崔@@ 1
崛 1
嵘@@ 1
嶙@@ 1
巍@@ 1
巩@@ 1
巴解@@ 1
巾@@ 1
帘@@ 1
帼@@ 1
平心@@ 1
幽 1
庐@@ 1
庖 1
府@@ 1
廖 1
弑@@ 1
弩 1
彗@@ 1
彪 1
彪@@ 1
徉 1
徉@@ 1
徙 1
德黑@@ 1
必不可@@ 1
忑 1
忑@@ 1
忒@@ 1
忖@@ 1
忱@@ 1
怂 1
怅 1
怆 1
怙@@ 1
怡@@ 1
怦@@ 1
恃 1
恍@@ 1
恕@@ 1
恢 1
悛 1
惆@@ 1
惋@@ 1
惕 1
惩罚@@ 1
惭@@ 1
惴 1
惺 1
愚 1
慧@@ 1
慵@@ 1
憋@@ 1
懋 1
戍@@ 1
我看来 1
戾 1
扉 1
扒 1
扒@@ 1
扛 1
扼 1
抖@@ 1
抚 1
抠 1
抠@@ 1
抵债 1
拄@@ 1
拎 1
拘 1
拷 1
挑战@@ 1
挚@@ 1
挛@@ 1
挞@@ 1
捱 1
捺@@ 1
掂 1
掇 1
掖 1
掣 1
掴 1
掺 1
揍 1
揠@@ 1
揩@@ 1
揿 1
搓@@ 1
搜 1
搡@@ 1
搪@@ 1
摔 1
摹@@ 1
撷 1
撸 1
撺@@ 1
擎@@ 1
擒@@ 1
救世@@ 1
敖@@ 1
敞 1
斌 1
斤 1
斯亚贝巴 1
新奥尔@@ 1
旃@@ 1
无异@@ 1
日俱@@ 1
日内@@ 1
旧金@@ 1
旷 1
昭 1
晋三 1
晓波 1
更生 1
曹 1
札@@ 1
权宜@@ 1
束手无@@ 1
杳@@ 1
杵@@ 1
构成@@ 1
枉 1
枞@@ 1
枰 1
柚@@ 1
柬@@ 1
柱@@ 1
柿@@ 1
栈@@ 1
栉@@ 1
栋@@ 1
栗@@ 1
桁@@ 1
桅 1
桅@@ 1
桔@@ 1
桦@@ 1
桨 1
梅德@@ 1
梨 1
梨@@ 1
梵 1
棘@@ 1
棣 1
棱 1
棺 1
楔 1
楞@@ 1
榭@@ 1
槁 1
樊@@ 1
樽@@ 1
橘@@ 1
橙 1
橱 1
橱@@ 1
橹@@ 1
檐 1
歇尔 1
歪 1
歼 1
殉 1
殴@@ 1
殷 1
毙@@ 1
氅 1
氓 1
氓@@ 1
氙 1
氛 1
氡 1
氪 1
汐@@ 1
汜 1
汝 1
汝@@ 1
汰@@ 1
沉迷@@ 1
沥 1
沸 1
泊@@ 1
泌@@ 1
法西@@ 1
泗@@ 1
泮 1
泵@@ 1
洄@@ 1
洛杉@@ 1
浃@@ 1
浑 1
浚 1
涝@@ 1
涮 1
淘 1
淳 1
淳@@ 1
渊 1
渍 1
渗 1
湮@@ 1
溘@@ 1
溴 1
滓 1
滞不前 1
滩@@ 1
澡 1
激励@@ 1
濡@@ 1
瀚@@ 1
灸 1
灼 1
炖 1
炯 1
炯@@ 1
炽 1
烘 1
烨 1
烫@@ 1
热衷@@ 1
焖@@ 1
焙 1
然如此 1
煌@@ 1
煮 1
熏 1
熔 1
燎 1
燧@@ 1
牦@@ 1
牲 1
牵 1
牵涉@@ 1
特勒 1
牾 1
犁 1
犸 1
狍@@ 1
狒 1
狒@@ 1
猁 1
猞@@ 1
獭 1
玻 1
琅@@ 1
琏 1
琢 1
琥@@ 1
瑜@@ 1
環 1
瓢 1
瓣@@ 1
瓦多 1
生人 1
甥 1
疙@@ 1
疝@@ 1
疤@@ 1
疹@@ 1
疽@@ 1
痂 1
痞 1
痪 1
瘙@@ 1
瘩 1
瘸@@ 1
癔@@ 1
皑 1
皑@@ 1
皓@@ 1
皱 1
盅 1
盏@@ 1
盔@@ 1
盥@@ 1
眶 1
眷 1
睐 1
睐@@ 1
瞌@@ 1
瞟@@ 1
瞧@@ 1
矍@@ 1
矛 1
矜 1
矶@@ 1
矽@@ 1
砌@@ 1
砭 1
砰@@ 1
砷 1
砷@@ 1
硒 1
硼 1
碜 1
碾 1
磊 1
磺 1
祛@@ 1
禄@@ 1
禹@@ 1
禾@@ 1
秆 1
秣@@ 1
秤 1
秩 1
移动@@ 1
稅 1
稅@@ 1
稔 1
稠 1
稷 1
稼@@ 1
窘 1
竖 1
竺@@ 1
竽@@ 1
笠 1
笫 1
笹@@ 1
筒@@ 1
筷 1
筷@@ 1
簧@@ 1
粕 1
粘 1
粟@@ 1
粤@@ 1
粥@@ 1
粱 1
糯@@ 1
維 1
維@@ 1
繽 1
纫@@ 1
纬 1
纭@@ 1
纶 1
纺 1
经济学奖 1
绒@@ 1
绣 1
绥 1
绦@@ 1
维夫 1
缢 1
缤@@ 1
缰 1
罄@@ 1
罅@@ 1
置信 1
羌 1
羚@@ 1
羟@@ 1
羹@@ 1
翠 1
耘 1
耦@@ 1
耶路撒@@ 1
肋@@ 1
肚 1
肛 1
肛@@ 1
肮@@ 1
肽 1
胱 1
胱@@ 1
胳 1
胺@@ 1
脆@@ 1
脐@@ 1
脓 1
腓 1
腮 1
腻@@ 1
膛 1
膨@@ 1
膨胀率 1
膳 1
臀@@ 1
至关@@ 1
臼@@ 1
舀@@ 1
舱@@ 1
舷@@ 1
艘@@ 1
艿 1
芋@@ 1
芭 1
芯 1
苒 1
苔 1
茬 1
茹 1
荏@@ 1
荐 1
荐@@ 1
荚 1
荟 1
药性 1
荻 1
莅@@ 1
莠 1
莫拉@@ 1
莽 1
菱 1
菱@@ 1
萊@@ 1
萩 1
葚 1
蒸 1
蒿 1
蓬勃@@ 1
蔑@@ 1
蔓 1
蔓@@ 1
蔼@@ 1
蕊@@ 1
薇@@ 1
薩@@ 1
藜 1
藿@@ 1
蘼 1
虞@@ 1
虾@@ 1
蚌 1
蚪 1
蚱@@ 1
蛉 1
蛰 1
蛰@@ 1
蛹 1
蜢 1
蜷@@ 1
蝇@@ 1
蝉@@ 1
蝌@@ 1
蝙@@ 1
蝶@@ 1
螨@@ 1
蟒@@ 1
蟾@@ 1
蠢 1
蠹@@ 1
衅 1
衍生@@ 1
衡 1
衿 1
袍@@ 1
褐 1
褛 1
褴@@ 1
襟 1
西奈@@ 1
要性 1
觅@@ 1
觊 1
觐 1
言论@@ 1
訇 1
誊@@ 1
讫 1
讴@@ 1
论家 1
讼 1
诃 1
诏@@ 1
话说 1
诟 1
诣 1
诤@@ 1
诵@@ 1
诶 1
谊@@ 1
谔 1
谚 1
谟@@ 1
谧 1
谬 1
豹@@ 1
貘 1
贮 1
贸易组织 1
贻 1
贾德 1
赁@@ 1
赈 1
赊 1
赓@@ 1
赖于 1
赡 1
赭@@ 1
趄 1
趔@@ 1
趟@@ 1
趴@@ 1
跄@@ 1
跤 1
跬@@ 1
路口 1
踱@@ 1
踹 1
蹄@@ 1
蹊 1
蹙 1
蹚 1
蹦 1
蹦@@ 1
蹬 1
蹬@@ 1
蹭@@ 1
轱@@ 1
轻重 1
辍 1
辘@@ 1
辜 1
辫 1
逋 1
逛@@ 1
逞@@ 1
遛@@ 1
遢 1
遨@@ 1
遵 1
避风@@ 1
邋@@ 1
邑 1
邬@@ 1
邱 1
邱@@ 1
郑 1
郡@@ 1
鄂 1
鄂@@ 1
酣@@ 1
酩@@ 1
酯@@ 1
酱@@ 1
醇@@ 1
醋@@ 1
醍@@ 1
醐@@ 1
釜 1
鏖@@ 1
钏 1
钏@@ 1
钕 1
钙 1
钛@@ 1
钴 1
钵@@ 1
钸 1
钼 1
钾 1
铂 1
铂@@ 1
铄 1
铆@@ 1
铈 1
铍 1
铒 1
铛 1
铯 1
锃@@ 1
锄@@ 1
锒 1
锗 1
镀 1
镍 1
镓 1
镝 1
镣 1
镯 1
镰@@ 1
镶 1
闯 1
闷@@ 1
阈@@ 1
阎@@ 1
阡@@ 1
陌 1
陛@@ 1
陴 1
雁@@ 1
雍@@ 1
霓@@ 1
霞 1
靈 1
鞍 1
鞍@@ 1
顷 1
颅@@ 1
颈@@ 1
颌@@ 1
颚 1
颚@@ 1
颞@@ 1
颧@@ 1
餍 1
饥 1
饲 1
饷 1
饺@@ 1
饽 1
饽@@ 1
馊 1
馋@@ 1
馏@@ 1
馨 1
马克@@ 1
驽@@ 1
骇 1
骼@@ 1
髓@@ 1
高乐 1
髙 1
髻 1
魅 1
魯@@ 1
鲑 1
鲜明@@ 1
鲠@@ 1
鲨@@ 1
鲯 1
鲷@@ 1
鳁 1
鳅 1
鳗@@ 1
鵟 1
鸷 1
鹉 1
鹦@@ 1
麽 1
黜@@ 1
黝@@ 1
鼓舞@@ 1
龈 1
龊 1
龌@@ 1
Ａ 1
Ｍ 1
Ｓ 1
